/**
  ******************************************************************************
  * @file    network_data_params.c
  * @author  AST Embedded Analytics Research Platform
  * @date    2026-02-23T15:21:30-0500
  * @brief   AI Tool Automatic Code Generator for Embedded NN computing
  ******************************************************************************
  * Copyright (c) 2026 STMicroelectronics.
  * All rights reserved.
  *
  * This software is licensed under terms that can be found in the LICENSE file
  * in the root directory of this software component.
  * If no LICENSE file comes with this software, it is provided AS-IS.
  ******************************************************************************
  */

#include "network_data_params.h"


/**  Activations Section  ****************************************************/
ai_handle g_network_activations_table[1 + 2] = {
  AI_HANDLE_PTR(AI_MAGIC_MARKER),
  AI_HANDLE_PTR(NULL),
  AI_HANDLE_PTR(AI_MAGIC_MARKER),
};




/**  Weights Section  ********************************************************/
AI_ALIGNED(32)
const ai_u64 s_network_weights_array_u64[6070] = {
  0xbe956af73e12d363U, 0x3eb3b7eebe800e83U, 0xbdf96698bcf33c22U, 0xbed5cb8f3d26f927U,
  0xbc557026bdafa525U, 0xbe510fe7bf206815U, 0xbe7b3375beb93480U, 0xbeab53ad3d07470bU,
  0x3e364832bf0573e3U, 0x3f08a47dbf08a415U, 0x3c847c803e25808dU, 0x3e2c8492be357184U,
  0xbeb087193f05c26cU, 0x3d80a5a7beaaaa2aU, 0xbefd1e5a3ec2b446U, 0x3c519b9bbe8938a4U,
  0x3e22ea0cbed1d7ecU, 0xbf0ae73c3e9f711eU, 0xbdd0fd423dc93496U, 0xbea092583e216becU,
  0x3e3915473e9b4ebdU, 0x3e1ffa603e34e515U, 0xbf0f3ae13d12e427U, 0xbd53f9ee3d197cb1U,
  0x3ed803f83db57c53U, 0x3d604e5ebe7e5eb8U, 0x3e8a7c073e8c2b1eU, 0xbea47071be95f3c0U,
  0xbdbdc6063e9285f2U, 0xbd805430bd8e85fbU, 0x38dd747dbefd1ec7U, 0x3ecf7a913e8d7a69U,
  0x3edf95353deeee9fU, 0x3cef38efbdbadf34U, 0xbed4e7773e644e9dU, 0xbea83221bc02410eU,
  0xbd9c8f2b3ee2960dU, 0x3ec6217c3e58d7d1U, 0xbe1219a63e1deaa9U, 0xbe8e4e7c3eb35972U,
  0xbee6e4d8bcf1c0e0U, 0x3d4a3dcdbec12e82U, 0xbe2292d13e59c49dU, 0x3e4aa64abd8bd160U,
  0xbd509c6d3f1d63c7U, 0x3eb4c7dfbebf0285U, 0xbe62b5db3d256010U, 0x3e7d2899be25c23eU,
  0x3e945c543e15ddb6U, 0xbefcbae73e9171feU, 0xbe1080b4bd99b783U, 0xbed5bdeebefbb682U,
  0xbf301dd73e10caf9U, 0x3c092a44bea06d13U, 0xbec5ef4a3e6480b7U, 0x3d8c116dbe2515eeU,
  0x3e77659a3e8768aaU, 0x3df9e0143c1f8b59U, 0x3e0c2be53ef6fdbfU, 0xbec63e703ebca2cbU,
  0x3ece94aebe6e6f79U, 0x3e581f213e36e94dU, 0xbd8bd1673a04d6ffU, 0x3e9426a43e090c07U,
  0x3e69d7053e9eddf6U, 0x3cecfa0d3e942cc6U, 0x3e927e9e3eaea336U, 0x3ed49028be13a0bbU,
  0x3e90d91bbe09bab0U, 0x3e6418f03ec49bd8U, 0x3eef7503bdc4878cU, 0xbe3bb4053e8961e5U,
  0xbc1ee591bd8f9d28U, 0xb9ceb058bbb5033fU, 0xbcbb13d03c72b94eU, 0xbd85c808bda83d43U,
  0xbc5ee80fbc6fb9f4U, 0x3bf7fcb5bc7c9dacU, 0x3db41475bdd692c8U, 0xbc8d6101bdc0e6ffU,
  0x3d79c4debeb56aa0U, 0x3df7d5b5bf4a6444U, 0xbd0bdbd93e2eaf22U, 0xbe3077673ecd17e6U,
  0xbf0ec3a3be1c667eU, 0xbd85809a3de95bfeU, 0x3d31e3dabee7f3d6U, 0xbe36936b3dc7e37dU,
  0xbd9fd6f1bef0f474U, 0x3e119335bec37f43U, 0xbde03ff23dcfad14U, 0xbe35a74c3db3d497U,
  0xbf0955e83dbbc82eU, 0xbea3c1083c4ec9cbU, 0x390de815bebdc93eU, 0x3da09e713dafcc99U,
  0x3e61d0f7bd76de1dU, 0x3d6178b5bef57d7eU, 0xbdcb28613e53a7a3U, 0xbecaa4d8bd92b745U,
  0xbe92b251bd919d0dU, 0x3d6b7ac6be2bb081U, 0x3e91f4a1bdab751dU, 0x3e722fcf3d648379U,
  0x3e9dd91abd7264dfU, 0xbdc89b613ebb2a5fU, 0x3e29b993be5dadeeU, 0x3f3296703e99067bU,
  0x3f7ed771bd91bccbU, 0x3d337f5e3e16e229U, 0xbdc1fa543ed0aa01U, 0xbdf14fe3be16e206U,
  0x3da7887e3e4616cdU, 0x3e60de2e3f24c5a3U, 0x3d3818b8be0f7b29U, 0x3f3971103d04e047U,
  0x3f668e3b3e8c8949U, 0x3d5f04ffbd4a31f7U, 0x3dcfbfcb3f3bb0ccU, 0x3d7d21bc3e976981U,
  0xbd9414623ddb4ec8U, 0x3d9ff0643ee4a29dU, 0x3e81cf1e3e24b45dU, 0x3f329a373db88886U,
  0x3f6d03103e05c4c3U, 0xbe0fc590bcac0e6eU, 0x3daf21253f30f55bU, 0x3d1ecdac3d763936U,
  0xbfb3cb653c77dcaaU, 0x3ed5daa2bf3f0a38U, 0x3e9a5d51bd2a02ceU, 0xbdb473963db6c662U,
  0xbec143acbd43a60aU, 0x3f3d7b76bbebf8d8U, 0xbd8cd5e9be9d79f0U, 0x3ea5dd88be80dbf4U,
  0xbf96c88dbdd4fa3dU, 0x3ef30337bf1e02aeU, 0x3ee58adb3d7dc285U, 0x3d06f1d3be690a3dU,
  0xbedae2babe8fbf62U, 0x3f48daf5be69f1baU, 0x3db896c53e140704U, 0x3e91443cbde4bde9U,
  0xbfb7ed783de56742U, 0x3d90b82dbf717087U, 0x3e08b883bdace150U, 0x3de12752be3093b0U,
  0xbd1c5bd8bdb05465U, 0x3ecfa2b93e094e0dU, 0xbe5941e13e0c9584U, 0x3df1aa4c3deb6331U,
  0x3e22ceeabe85a615U, 0xbe0c953bbecee700U, 0xbed3d7473e03dbb0U, 0xbdc19a4cbe747a34U,
  0xbedba6aebe441821U, 0xbe38ab0a3e1cae85U, 0xbdcb910c3bd5a18cU, 0xbf2d7f3abecef9d4U,
  0x3e1d32fe3e58e103U, 0x3db6303dbe2f911cU, 0xbe2e3c7b3e50c755U, 0x3dd8a08bbdad6ba9U,
  0xbe321e21be437f51U, 0xbef4d2ab3dacd8cdU, 0xbec29c563eb453bfU, 0xbf5ea8da3dc7bd04U,
  0x3ea32f8cbe8479e0U, 0xbeaa56e73b6787a7U, 0xbdfbef323e0b0126U, 0xbe710c3bbddf865cU,
  0xbf095c60bef1fd68U, 0xbdca94323e9b9f23U, 0xbe3c404fbd567bf3U, 0xbf2a473b3d3a6620U,
  0xbb935cebbef785f1U, 0x3d7d66703f449c78U, 0x3e9cfd6cbda4722fU, 0xbac55a54be10ee81U,
  0x3f445ba03ea6caabU, 0xbc1e2613bcc018bdU, 0xbd237e483d337110U, 0xbd008cc7bc8044f4U,
  0x3ec7f0e6bd75e63eU, 0xbdee38223f0485ecU, 0x3ede35e33d8fe877U, 0x3dfc3165be9a9630U,
  0x3f5133193e8c2563U, 0x3e0cda2c3dfbdc7cU, 0x3e383e74be99dd94U, 0x3d80c6e83d2c2c51U,
  0xbdbd1fbfbef75720U, 0xbedf745b3f8443b3U, 0x3ec409a0bdef7a53U, 0x3ee51c88becd850bU,
  0x3f0e118d3ee155acU, 0x3e66eea93e084f96U, 0xbc9dea26bdf07b0cU, 0x3c2df178be1c7e24U,
  0xbd915e323f11a3b2U, 0xbf38c70bbf21fdc0U, 0x3c9075d03e9018f6U, 0x3da607283db39486U,
  0xbf045fd6be5e2f89U, 0x3e8c5fe13e9bb690U, 0xbcd94082be801158U, 0x3e74f352bd29fd70U,
  0x3d7804613f138512U, 0xbf3c2b3dbf7a4507U, 0xbde40bcabe154a9dU, 0xbe71b5a73dd9a0ffU,
  0xbef08bf8be31db54U, 0xbd2ddd663d513d19U, 0xbd34a9cc3dd178b4U, 0x3e1d24ee3e278c17U,
  0xbe09830a3edb4821U, 0xbf33521bbf9c7b6cU, 0xbeab3eacbe424f9dU, 0xbe48f6d0be1b735fU,
  0xbef8db0a3d40f328U, 0xbe09134e3ec53ae4U, 0xbe74d968be777544U, 0x3e489eb63e40420eU,
  0x3e4512c93eb99e90U, 0x3e48b65e3f202329U, 0x3efa6f57bbb26c35U, 0x3f095b683eaf7d0cU,
  0x3eedb4743e990abaU, 0xbe34b891bd7d4c3fU, 0xbe22b10f3e3909faU, 0xbdd3ca393e92cd83U,
  0x3dfd2cd4bd0448fbU, 0xbdfd52b13ee7348fU, 0x3e66e4dabc23418eU, 0x3ef2dee0bc93aef1U,
  0x3f4437713e7d2240U, 0x3dfdecc93db7d392U, 0xbe6df7223f190df2U, 0x3e2a6fa73db961d9U,
  0xbe5551aebdc009ddU, 0x3e63ad543f0c715eU, 0xbd02dee23d7e886aU, 0x3f3352cb3e2375ecU,
  0x3f304e45be88d4faU, 0x3c4f1eccbd772676U, 0xbc597a1a3eb56029U, 0xbcee77d03cbbbdd0U,
  0x3e39cb15be5230d8U, 0x3d5f190bbe72f4dfU, 0x3d9e9d463dffc42fU, 0x3b0323973d8fe8f5U,
  0xbe44bb093f1acad2U, 0xbd943b9ebe9472b9U, 0xbe92d1a8be761d4eU, 0xbe0c4d28bf025a37U,
  0x3e256b4ebf038566U, 0x3d8e0765bd88743bU, 0x3e963b5abe7ceb00U, 0xbeb23c17bcf81e24U,
  0xbef277793e9b1af2U, 0x3e6952e4be8c6a56U, 0xbe54c97dbd403fb8U, 0x3d0beda1bf283708U,
  0xbbd81534be7a40c9U, 0xbdb80fbd3c97ff36U, 0x3dcc4294be056c97U, 0xbeeec6613df4d884U,
  0xbedcb0a33f06f304U, 0x3cb064efbdbdc297U, 0x3e250d6cbe2e68b4U, 0x3d538f12be976e19U,
  0xbe2460a13de25efdU, 0xbcf30e7e3cf5a98bU, 0xbb1bfd2eb9fa09e4U, 0x3dd49f44bde49101U,
  0x3d0bbba73de23f3eU, 0xbc7889763dccdc8cU, 0x3e47b9fe3e8474f5U, 0xbda794ec3dd5e88dU,
  0x3dce22b1bdda08c2U, 0xbd2bc55d3d9f7e7dU, 0x3e35be543e259998U, 0xbd3a3ebcbd3bd9a0U,
  0xbcd7f224bdf14248U, 0xbe8def8b3d8bfcbbU, 0x3e7e6d273e389934U, 0x3dd449dcbd254bbdU,
  0x3c22588a3d9c2915U, 0x3ceecd15bda9d58bU, 0x3e08b1eabbe99b43U, 0x3ce4ffee3b3d5bcfU,
  0x3e57a6f7bd6cc70fU, 0x3c31e6453d667cefU, 0x3e2a35ff3dabfaabU, 0x3d5082513e4f2a42U,
  0x3e288371be3bf1e9U, 0xbe14d692bccf16e2U, 0x3ea2eaee3d6fb2c4U, 0x3dc0e935bd5a2009U,
  0xbd7908f0bc95771eU, 0xbc82de8fbd855b31U, 0x3e52a8e23e2528b7U, 0xbd63cce43e27e86bU,
  0x3c94d5e63d3aca95U, 0xbe24240bbd9be34aU, 0x3e73e1c73e9a77d0U, 0xbd41ec253d9f2b8bU,
  0x3e2512e5bdccd962U, 0x3c9c84c93d6a50ceU, 0x3e7288f23e466901U, 0x3d8c00d93c9488ccU,
  0x3e09f811be721072U, 0xbe1b53fbbe1e22faU, 0x3e67ea503e51171cU, 0x3d74546b3b77ac35U,
  0x3ca25156bccc9f7bU, 0xbde40c243daa80d0U, 0x3d468e1c3e3e3208U, 0xbda765263d27f174U,
  0x3db538c3bcf9aa82U, 0xbd592020bda7f603U, 0x3dd92dfb3e840003U, 0x3b52db2cbbd194d8U,
  0xbcf29e87bdaa5b30U, 0xbdf5108bbd0eb8deU, 0x3e859a2a3e2de519U, 0xbd3c2aec3bd5a65bU,
  0x3e6d79173c474dabU, 0xbd3c6e1ebd214606U, 0x3e5eb4393e37634eU, 0x3b965d323e1c183fU,
  0x3d8e4af6be4d61a2U, 0xbd5b3d7cbdd033c2U, 0x3e438bec3e03114bU, 0xbd8d1cf8bd7a60ccU,
  0x3c6771293b8dbbb2U, 0xbd283d7d3ca534bbU, 0xbd10cfe13e508863U, 0xbd45432d3e68d9b3U,
  0x3d1d1fe5be91b75aU, 0x3d8caf383d6d95f0U, 0x39ff2bbabc30c3d6U, 0x3df516b53d2b1765U,
  0x3cd024c2be09cb0dU, 0xbdc31718bd34cba0U, 0xbd60739c3dbee377U, 0xbe43eb7e3e5e57bcU,
  0x3e09a15abe68319aU, 0x3d146efbbdd1f5b1U, 0x3e7c33343e1a4158U, 0xbddc96723e30b9d8U,
  0x3d1eb31fbdde0b51U, 0xbe620c693c14785aU, 0x3de9da0b3d9d537aU, 0x3d252363bdfd3de7U,
  0xbdb951e1bca81ef9U, 0xbe4e4a1dbe03deabU, 0x3e955d333e812374U, 0x3d9d9df5bdb6ffb7U,
  0x3d8fe280be2e7c8aU, 0xbe254375bddf2d59U, 0x3ec06bcc3e25237fU, 0xbdca4197bd63f4dcU,
  0x3e71a8443dd14f69U, 0x3d192ff73e00bdd0U, 0xbe3d38433dc25121U, 0x3e83a5d73eadcf9eU,
  0x3e98f2893e1c12b8U, 0x3d2167f13c7233bcU, 0xbd754fe53e37bd0cU, 0x3e8842d03e9ce987U,
  0x3ea0cb463e2b9f84U, 0xbd23d63cbd0884aaU, 0xbe4efe383d9c8d78U, 0x3dad6f353ebc852eU,
  0x3eaa5c97bc7e8555U, 0xbdeea9d23e654df3U, 0x3c2bd92dbca347b6U, 0x3cfba6ad3db8a3e7U,
  0x3e413a143d6fda5bU, 0x3e4395c6bd25df23U, 0xbcba4aaf3e27c8a4U, 0x3ce100533e048f91U,
  0x3e3a7c7fbd458c18U, 0xbdd9b6183dda1896U, 0xbe52c9b33d32bc72U, 0x3d7015dc3e138220U,
  0x3dd9677c3dd3a356U, 0x3e136a7d3dfbf89fU, 0xbe708d9ebd125315U, 0xbb238fbf3e9ca576U,
  0x3e2704553e31c047U, 0x3e17f0393e1d635bU, 0xbe6ee267be099e0bU, 0x3e1e547a3ebfdc1bU,
  0x3e7e7bb6bd8a75c1U, 0xbb2cdf673dfb369dU, 0xbd4e573b3d53832dU, 0x3e3b68803e6351d5U,
  0x3e865a963d3a7944U, 0x3e5dc2d4bd8e9380U, 0xbe8c972a3d64ab71U, 0xbc0f73a03ef31fc6U,
  0x3e3740193c150a02U, 0xbd5e5b613e2717b6U, 0xbe9380c63d3c7cdfU, 0x3e24ef903eba8d4cU,
  0x3e704576bd3afd3eU, 0x3b59946abdddcc29U, 0xbe9131ec3dd507adU, 0x3e2ed07e3e27f94eU,
  0x3ea476fcbd0b6de4U, 0x3d7f8e493e3f6a30U, 0xbe0e020c3dc201b0U, 0xbd5e4a7c3e92213eU,
  0x3deae1d43db2748cU, 0x3d90148a3e5d65eeU, 0xbe6da1bb3cb6c582U, 0x3d7a99e13ee5f6dbU,
  0x3e35dc1f3da0250fU, 0xbc3841a33de3107dU, 0xbe059a25bd80c8feU, 0x3e28224c3eb68a9fU,
  0x3e995a0ebd26273fU, 0x3cc23c99bd65ebb2U, 0xbdc864c73e437755U, 0xbc8247c63e892474U,
  0x3db23cbdbba36ce5U, 0xbdc057203d8fbf7eU, 0xbe0d43843dc92f66U, 0xbb339e893e8a08e2U,
  0x3e91b16dbda49e39U, 0x3deb3cbd3e1d4c0cU, 0xbe389d383e36c7e8U, 0x3e9b90983e30dedfU,
  0x3e80cc00bd35dd6dU, 0xbc4ee9ca3d9b0425U, 0xbda61f6fbd4ddfe5U, 0x3aecb9d53e19e64fU,
  0x3e9fe3883e00499fU, 0x3e17ec42bd888e80U, 0xbe225d363d0d1b6fU, 0x3e191d873eb0807eU,
  0x3ed0b2633e1376e6U, 0x3e0ce756bd85530bU, 0xbe24ec8abab72fc6U, 0x3c9a817d3ec6a85bU,
  0x3e35453e3d748e90U, 0x3d6d14393e4c2a56U, 0xbe8de6803d69759dU, 0x3e98aaac3ee0db52U,
  0xbdac06f8be40815eU, 0x3d87186abdbddbfbU, 0xbe1821333e1baee9U, 0xbcf5c9b83e1d4214U,
  0x3e6df157be6e5281U, 0x3dad3703bb8912c4U, 0x3dbad974bd5e4d46U, 0xbd543b993be6ce54U,
  0x3e6d81febe2e4dfbU, 0x3e27f314be11963dU, 0x3dd12d833e45b3c7U, 0xbe4ec480bd0d5923U,
  0x3e8b28c9be203585U, 0x3d487c48bd6f7404U, 0x3e0e83ca3e28147cU, 0xbda3deb93e3cfa1eU,
  0x3dd8aa413bbb07fcU, 0x3e3de0133d90cd8bU, 0x3e3104ed3de6af62U, 0xbd791f123e5f9e5cU,
  0x3dedf0dcbe06d9ddU, 0xbd822fa73e17a2cbU, 0x3d62e1013db347c3U, 0xbd820d0a3d3fd7feU,
  0x3ac11f9dbe46a4b9U, 0x3d452abb3aa2e6c5U, 0x3e1da32fbd2bba5cU, 0xbd5412ef3e01e0afU,
  0x3e5fd8cfbe866577U, 0xbcb1a5e4bdcd0079U, 0xbda495a23d5f7fa9U, 0xbd4503003e247de3U,
  0x3dd235d3be3336e3U, 0x3d9cc5bb3d754481U, 0xbe01bf25bd860c0fU, 0xbcd617b5bad53c62U,
  0x3d1ecebebe839f77U, 0x3d717807bd9074adU, 0xbd20a9b2bd14f72bU, 0xbe2d8d573dd6414bU,
  0x3d7dbd86be85d7c9U, 0x3d564c98be550e92U, 0xbd0164f13d67097cU, 0x3d220a783e2dfb0eU,
  0xbcb990f6bdee15efU, 0xbcc03c13bdf1c74fU, 0x3d1c26303e05a4f3U, 0xbdb8cebe3e67fadbU,
  0x3d8a8d133c90f1aaU, 0x3dc2a24f3d0e2e18U, 0xbdfee2313e43ee24U, 0xbe0b5ef23dc23b73U,
  0x3e7b420a3da594bfU, 0x3e496a40bc096955U, 0x3d6255803e199ac4U, 0xbd9b3fc13e88c956U,
  0x3d9c0f82be3a474fU, 0xbdb345ed3d3459dfU, 0x3dba61693dfc268bU, 0xbd57bb283e1d1326U,
  0xbd2de89abe21690fU, 0xbc99a0a53dc0e327U, 0xbdbdb9053df1f3abU, 0x3da0f8c13e2659d0U,
  0xbdaf0b08be7eebf2U, 0x3ba100b1bdd2f183U, 0x3d6c80503d684b3bU, 0x3c420fb13e1394ebU,
  0x3dc4bc9abe3d810bU, 0x3df76d2e3d9c68f9U, 0xbd2dc7b33ddd3350U, 0xbd64fa7d3cc7a8ddU,
  0xbcea6e0cbe67ddb0U, 0xbc156da1bd991b1dU, 0x3dc66255bde91056U, 0xbc4cf0f33dba417aU,
  0x3e73a8f9be8558f8U, 0xbc17c96bbe6edf74U, 0x3bb05802bdefecc2U, 0x3d9ccb013d8d1476U,
  0x3e7e6cf8bc98c914U, 0x3d9d8d0bbe2afa7fU, 0xbe002dc0bd0fad46U, 0x3dd267ee3e4c5c4bU,
  0x3e983aa2be16106eU, 0x3dd10c88bdc40cb5U, 0xbcecef7f3dac7f25U, 0xbde4ba2e3e46a91fU,
  0xbeb72cae3d5aafa4U, 0x3d0465e83d013ec1U, 0x3cc969343e2c15f4U, 0x3d78d2e0bf1d1840U,
  0xbe5e21e33e196c7fU, 0xbda435983e2327aaU, 0x3e472cf43ce60c62U, 0x3e918863bf2233beU,
  0xbc769c663d3b1b19U, 0xbd96ed863e138e7fU, 0x3e109c6b3e3eea39U, 0x3de205eabef0eb98U,
  0xbde177413d2fe4f5U, 0xbdb434b83de1c606U, 0x3dca16183d0e15e5U, 0xbc9bad21be08a152U,
  0xbd6bee333cd651a1U, 0xbd42d06d3e1834f5U, 0x3d6a2c0a3d915db4U, 0x3de9e6a9bea9e8d1U,
  0xbe2084503d4e1499U, 0xbcb8d4dc3e560a33U, 0x3c068cccbcb163b5U, 0x3d427c90be6d3f1cU,
  0xbdad6922bd033741U, 0xbe09d1f23ddeedb5U, 0x3e6cc2073e1db87bU, 0x3e73b8febea12430U,
  0xbe7cf821bdc423abU, 0x3cd94fc03de2f517U, 0x3daeae823d499b68U, 0xbc10bef1bea6d974U,
  0xbeab023cbde347a3U, 0xbe1074e03dd9e0caU, 0x3e267ce53e379ea8U, 0xbce910b8bf0bd47bU,
  0xbec740463e2cfb44U, 0xbe3a39663defab92U, 0x3e21ed0a3e113d5bU, 0x3de2f2acbf0934d5U,
  0xbedc21273d631f68U, 0xbe373cefbd1dc61aU, 0x3e175fae3db11f46U, 0x3e553e73beef9cf6U,
  0xbe93b47a3e286009U, 0xbde24e5e3e184139U, 0x3de213b2ba4a7c4aU, 0x3df6dfc3bf159736U,
  0xbe5dc07a3e2a437aU, 0x3c4b138c3e63ea87U, 0x3e7626ff3e065257U, 0x3dc1104cbef62b2eU,
  0xbe4518e8bb6fad1dU, 0x3c25081ebb93e1afU, 0x3d16d4733d7d4a09U, 0x3e0de426beb2ca2dU,
  0xbda2ed643c9e76b8U, 0xbe1197673e6e7ab1U, 0x3e1a61c2bd9fcc31U, 0x3d036b6ebecc42c5U,
  0xbe291df43d5f11b4U, 0x3dc5f7d83e16343aU, 0xbdeb58693e2f4ff0U, 0x3aeafdb2bf0752c2U,
  0xbeabdad1bba91ba1U, 0xbd74ee723d49d4b5U, 0x3da51da8bbea9abbU, 0x3e44b094be454032U,
  0x3c4815adbd96e833U, 0xbe0093823e1fc5e8U, 0xbcae523ebd58045dU, 0x3da39d7bbe2ba2c1U,
  0xbe919169bcf70506U, 0x3ca358ac3dfa387cU, 0x3daf42ed3e37e9e7U, 0x3e1a8d96bf1641c0U,
  0xbe1b64543d70c43dU, 0xbdffb3573e8e211aU, 0x3d8849c13c51a04dU, 0x3df3fe8ebea3978fU,
  0xbea6cca33d27756eU, 0xbdd92a233e3e28a5U, 0x3d3d28cd3e56d46eU, 0x3e91a7b6bf28e5c3U,
  0xbeeb518f3e223a6dU, 0xbdf7c5d43d92397aU, 0x3e299b293dc9a6bbU, 0x3e3ab2e6bed33466U,
  0x3e10c41d3d4fef46U, 0x3dba0e2a3e01527fU, 0xbe9256a03d31ff5eU, 0x3dfd79633e3a0794U,
  0x3e19a6253cf8cb79U, 0xbdb58bd8bd4e54d6U, 0xbd2d4bfcbd0ac730U, 0x3e472ebbbd2fc523U,
  0x3e5ce3c53dcb893aU, 0x3d5df01fbd4bed3aU, 0xbd72c1e4bd76b2daU, 0xbb2623ad3e3f892aU,
  0x3ce040ad3d9ead3aU, 0xbd13db373e5b2d3aU, 0xbe29c3bc3db3f9d7U, 0x3e37fd72bc1c65ecU,
  0x3d9eb4253da3b131U, 0xbdd6c682bda0b37dU, 0xbe880e82bdb8c681U, 0x3e7da2d93e236961U,
  0xbc533a5e3e2463f4U, 0xbc802297bcf15b49U, 0xbe5aaa9abc777033U, 0x3e118f4ebce40b9aU,
  0xbd851dbc3daf8140U, 0xbc3125453c5ef0c3U, 0xbd6b42213e08e96fU, 0x3e32ce75bc10d4aeU,
  0x3cfa5dd2bb843eccU, 0xbdc541bebcd7e200U, 0xbe393becbcf1f145U, 0x3aa5df583e0ac829U,
  0x3c974d903e19d71cU, 0x3c4b78bc3d83ee33U, 0xbe7ea7c63cf97d63U, 0x3e44c3e73df5fb71U,
  0x3dc91e5a3e3355d9U, 0xbcf13ea43db463efU, 0xbe8e5e683d390f75U, 0x3e81f6923e9cf39aU,
  0x3e2ea1763da0b492U, 0xbc7ffecbbd089803U, 0xbeb0ef6abc56e0b6U, 0x3e7f0eefbb1ea13bU,
  0xbd928db63d77c296U, 0xbc9acfa7bca7419cU, 0xbe47028e3e1e978dU, 0x3de91fae3c5edac4U,
  0xbcd2e6433c4df20aU, 0xbe2b1cd93dd17f9aU, 0xbeb82eacbe09dd99U, 0x3d1b6f933e078f80U,
  0x3d9788933d7867f4U, 0xbe53d9ec3dfc4039U, 0xbe9cbade3e54dfa5U, 0x3d475cf93e48e6dfU,
  0x3d22fd09bba4754aU, 0xbe41866abd1494f7U, 0xbe84856abd86f238U, 0xbd9001ca3d72bc16U,
  0xbc8a9a9c3c5ad217U, 0xbd17345e3bce26b8U, 0xbdbbfc4c3ccba938U, 0x3d0e5d423d508113U,
  0xbce68da43dd3523cU, 0x3d69c99b3e3985bcU, 0xbd27b2eaba14c1b5U, 0xbcc0ac583e24f720U,
  0xbd4c47ee3e1d51c4U, 0xbdc22ce73e424a30U, 0xbe3755873d9ce564U, 0x3ddde61b3dd414f7U,
  0x3dddc75e3de1f9f1U, 0xbd2717b43c8c46c3U, 0xbd4af8833e76a832U, 0x3d78f64d3e71eef5U,
  0xbcfbb8263e00a464U, 0xbe0d97c4bd27ef48U, 0xbe2a44693c0656e0U, 0xbb89c3323c1cdc39U,
  0x3e9f479f3e171bfaU, 0x3dfd1e05bcdd9d29U, 0xbddb64193bfd3939U, 0xbd83f7f83e58a546U,
  0x3e8c31253e02138eU, 0x3d825f543de46fa6U, 0xbeb6aea9bc611411U, 0x3e54a9843d621e10U,
  0x3e257b52bd9fd768U, 0x3d4825bebef87a41U, 0x3dd840dabe966a68U, 0xbe99eec43f2a5581U,
  0x3ddb97e53da4cfebU, 0x3d398cddbf2ded69U, 0x3d8b763dbd7a50f0U, 0xbe1ff4543eca4766U,
  0xbe59c74b3ca68512U, 0x3deaca75bf394ec8U, 0x3e03443ebe0eac45U, 0xbea52b493edadd93U,
  0xbe893bc8bd1cbbc3U, 0xbcae3d11bf269947U, 0xbd1fbfe0be75a273U, 0xbe2c05c83e1e6fe2U,
  0x3dd0f1a33e164794U, 0xbd0728cdbf064455U, 0x3e130050be1fb61cU, 0xbe1b2b1a3eb72ec6U,
  0x3d7dad873dbae532U, 0xbbd03b16bf254d07U, 0x3da4a00bbe75e16eU, 0xbea7ece13ee8aa46U,
  0x3daa9168bd8261aeU, 0x3d264e9cbf31580cU, 0x3dcc8ea5bda71a4fU, 0xbe0bfc483ea57cffU,
  0xbe4af6f33dac5827U, 0x3e3aa903bf1121f1U, 0x3e235a05bd391871U, 0x3c2b12ba3ee07e12U,
  0xbdd3281c3e1b1a0fU, 0xbc9523aebef37f4dU, 0xbc8be5b2bdd6cbe4U, 0x3dbe04f13e969aceU,
  0x3e7cc72a3ddf0debU, 0xbc9484a6befef3ffU, 0x3d3da757be934dfaU, 0xbe584e5f3ec5d07cU,
  0x3e4ff6823dc27199U, 0xb988ae06bec5e4b1U, 0xbd4a42af3d89b912U, 0xbe9adf1c3f23d096U,
  0x3e902dc73ddc6a8aU, 0x3e5a3e84bef5df5aU, 0x3df499f0bd80dc09U, 0xbe764d1e3ed202f0U,
  0x3d90494c3db8b04fU, 0x3e773e1ebef7d033U, 0x3e20aceebe7be267U, 0xbcb25dbd3f00d367U,
  0xbce760163da9b21aU, 0x3e4de432bee3c7e9U, 0x3d9b17eabe32de74U, 0x3d8d183f3edeee7bU,
  0x3e4974cb3ce49c9fU, 0x3dad0c46bf2a8113U, 0x3dc2905ebe5805c0U, 0xbdf360ad3ed0f4a9U,
  0xbc1aa21c3c3501c3U, 0x3dbc4f0cbf38485dU, 0x3dd0ed6bbdcaec1cU, 0xbe1504b23eed85a8U,
  0xbd8ef78bbbd18963U, 0x3e4565c6bf26ef2dU, 0x3dc1f94ebe440b4aU, 0xbe6bd0ff3e712684U,
  0xbe44bcbd3a22b485U, 0x3e696c63bf18f942U, 0x3d9c0afabec3d5d8U, 0xbe7ba8453dd4a0baU,
  0xbdde006cbcdb6f5aU, 0x3e240ac1bf44a601U, 0x3dc33151bddd58a7U, 0xbda042c03ead72fdU,
  0xba55fe373e5bad83U, 0x3dfa7483bf0c6aa0U, 0x3c82c13dbdd2e880U, 0xbe2e0ed33e0d7012U,
  0xbd0596df3e34506dU, 0xbd0159acbf372b5eU, 0x3c1956f2bed2543bU, 0xbe35c61a3e9fe03dU,
  0x3e4b68953cbf972eU, 0x3e7408febf0a170aU, 0x3e6e690bbf066d4eU, 0xbedc20b63e4c6060U,
  0xbe8dfd0d3d6f894fU, 0x3d2195643dfff9d9U, 0x3dc2fab53d8272f2U, 0x3f14f356bec03854U,
  0xbc875d473e05123dU, 0xbdf4a1d23e037c86U, 0xbba704d33d75b409U, 0x3eb66635bf003e57U,
  0x3d28fb0d3cab4826U, 0xbe398fcf3ea60fafU, 0x3bbb6aad3e0f5d58U, 0x3edeca91bec91701U,
  0xbddb84f33da00769U, 0x3c9f5b4c3e043f95U, 0x3e1241013e3b353eU, 0x3ebd2f9bbe39e975U,
  0x3e2c2a91bd5e6893U, 0x3db8dda13edde4edU, 0x3e0e0e923e54212bU, 0x3ea1e7ddbe23cd7cU,
  0x3d882a1e3d1c19b8U, 0x3cbd95973e7d7c07U, 0x3d912b7c3e818251U, 0x3ef1e167be845d27U,
  0xbda63157bd325290U, 0xbda2b29e3e05b44fU, 0xbd3ddbc93e502fb0U, 0x3ecd0864be3632a2U,
  0x3e562df5bb999d2aU, 0x3cdce8c33e992389U, 0x3e02380d3e729fd7U, 0x3ef220ffbe66d4beU,
  0x3ddba28c3e0adfc9U, 0xbdb2c2d13e550725U, 0xbd8a7c503e597c77U, 0x3ec1e4a8bdee6f65U,
  0xbe0ce93a3ceeb282U, 0x3c257b973e819402U, 0xbd98d72b3da39e28U, 0x3f07ffecbe92fc24U,
  0xbe53c2773cbe3497U, 0xbe39be973e3b3c4bU, 0x3dec81a43d9aa5c8U, 0x3f0b71c0be3f73a7U,
  0xbcc795e93c71be25U, 0xbd025bc03ef47886U, 0x3d9ece533df92c6bU, 0x3eae5b3cbeeb687dU,
  0xbde91b843bacb93fU, 0x3d317a343ed1904aU, 0x3e1898febd8bd6aaU, 0x3eab02adbee1aa37U,
  0x3d3188ca3c9b09c4U, 0xbce5cf413e3e363cU, 0x3dbac70f3e1b844dU, 0x3ecaee73be071ee4U,
  0x3d524aa83dc9924cU, 0xbe4a251b3e987b57U, 0x3c9bbeed3e1526ceU, 0x3e9743d3be5f9debU,
  0x3de0655abb24a540U, 0xbdd74afd3eb54b4cU, 0x3d35e5453e8f4265U, 0x3ec08f9cbe8f6161U,
  0x3d05c1b6bcbbda23U, 0x3ce7b9453e5e82faU, 0x3de8740b3e8146a4U, 0x3e4e518e3ce477e2U,
  0x3e401a01bdac1f7fU, 0x3ce6e9fd3eebaf35U, 0x3cf477bb3d5d3dfbU, 0x3e3f12f5bcf604f9U,
  0x3dd36a793d5cb81fU, 0xbe2b49bd3e99884aU, 0xbca143073dce4dfbU, 0x3e8fb6d8be230f67U,
  0x3e27254a3da6b5a2U, 0xbcc624693eda274eU, 0x3e1bdc593e99ec9eU, 0x3ef75a59be0da243U,
  0x3cf02bab3d829906U, 0x3d1667e43ec9de39U, 0xbd8315c13e740947U, 0x3f02792abe847ed5U,
  0xbe430a6dbc3a7102U, 0xbccee2503eea9aacU, 0x3c9c01693e31c9f5U, 0x3f21f300beb5944cU,
  0x3ed844b73c4afeacU, 0xbdced6643cbd0f7bU, 0xbe0e69ac3e58869dU, 0x3e813ba33ea73997U,
  0x3e4d00433e179a66U, 0x3a67e3a63d5647b1U, 0xbe0b78fb3df3c680U, 0x3eac33203e957182U,
  0x3e955ccb3d84d5e4U, 0xbdcae4be3e596f97U, 0xbd41d05f3dd09522U, 0x3d1fe16c3ec90fa7U,
  0x3e78314abd910056U, 0xbe81c0ac3e2a8dc8U, 0xbca309f1bc341c84U, 0x3e8379923e8c68d1U,
  0x3e241a433daaa450U, 0xbe05dc493e0055b5U, 0xbc4f8b053cf8e6fcU, 0x3e34ed163dd24fe4U,
  0x3ec5ade83da33b07U, 0x3d3727663de71637U, 0xbe95058dbcd3620eU, 0x3e8978e03e769085U,
  0x3eb113093d1b1511U, 0xbde200203e0e228eU, 0xbe115c69bc8754beU, 0x3e3880e03ef81a56U,
  0x3ed2488d3dd20ec5U, 0xbdb89b07bcd89fffU, 0xbdb2f9edbdc74c7bU, 0x3eb734643edd4935U,
  0x3ee1535e3d94ea49U, 0x3d9b390c3dbc8177U, 0xbc7924563e490efbU, 0x3e70879c3eb23006U,
  0x3e84c0033d149d5eU, 0xbd534bff3cce658eU, 0xbe73b9153de8c3a6U, 0x3ea4fef13f0e6315U,
  0x3e125c923cf92202U, 0xbe07a261bd50760cU, 0x3c47c1e9bd03f3eaU, 0x3ea4e3773ec9cf7eU,
  0x3e178963bd849faeU, 0xbdaababe3d4e4f31U, 0xbe3fa5a03e035e1eU, 0x3eb79eb43ea92cd5U,
  0x3dccbfe43dd7c840U, 0xbd99362d3e3dd4d4U, 0x3b717e57bd69cc86U, 0x3d3ff53a3ef08f43U,
  0x3e193b16bcc0093fU, 0xbe03de013dce3c5eU, 0xbdbaade53e5b7d2dU, 0x3e81579c3e75fd65U,
  0x3e89f8bd3e2a1fedU, 0xbc4f32c9bd83242aU, 0xbe0092973e1b97d3U, 0x3e5f39423ed7c24eU,
  0x3e7f51eb3e204875U, 0xbd25a1a03d960ed3U, 0xbd19ceef3d4b7f56U, 0x3e6629c93e50cb1cU,
  0x3e88dc523d204f2fU, 0xbe0f51bfbccf185fU, 0xbdbdbab43e20673fU, 0x3e9e26c73ea71725U,
  0x3d6ea0f23daa5deeU, 0x3a8e11ae3ca24c3fU, 0xbdd305a1bcd0a0b2U, 0x3db771de3e8f26c6U,
  0x3ee631dcbce7082bU, 0xbcb583aebc67f18fU, 0xbd4f9fda3d946e95U, 0x3d4d56293e8f66c7U,
  0x3e51486f3dc8d147U, 0xbdf47d3fbd8ff958U, 0xbe81341e3e2d7137U, 0x3de15b2c3eb43b31U,
  0x3e5bd9ff3b6716eaU, 0xbdc29cd43d8ef11cU, 0xbe96b8f63e427876U, 0x3da8dfca3e8036fdU,
  0x3ef14bd53dd0d6cdU, 0xbdbb0049bd4b22ecU, 0xbe111cc63d0319d5U, 0x3e4abf173e91c297U,
  0xbf367ab5bd84b66aU, 0xbe37c3583d93581fU, 0x3d54fee23ce478c6U, 0x3d6e8013bf354803U,
  0xbf0118a2bd9162afU, 0xbdec5ae13d354260U, 0x3dc228dbbca86528U, 0xbdf3e771bf235735U,
  0xbec838183dca7c32U, 0xbdba9ae53d8aaae9U, 0x3e8a91143da248bbU, 0x3d12aa86bf05fd87U,
  0xbf02cd44bc10dec9U, 0x3dd27ebd3d583ee2U, 0x3e5587b03d0dc2bbU, 0xbdf86897bf15d8a2U,
  0xbf238e35bca43333U, 0x3d4cfaedbd04852cU, 0x3dfb3639bd112b07U, 0xbdbee5e2bf30d8faU,
  0xbf1d28633c914b25U, 0x3ce7d6363d9507cfU, 0x3e7f6622bdbbc5b4U, 0x3d71bbe1bf15c6d2U,
  0xbf4191c93e04de55U, 0xbdc40afdbd7ca7dfU, 0x3e03fc16bdbeab43U, 0xbc40f603bef648e5U,
  0xbf619043bdb28628U, 0xbd62c985bd75eb10U, 0x3dc28e2b3c05e5afU, 0xbd32fae3bf056e65U,
  0xbf52f15b3ddbb255U, 0xbbccdaf33d3554e3U, 0xbd8e50c4bd850beaU, 0x3c7aaa5ebf1dd07eU,
  0xbf7d1ba93e173fb5U, 0x3d9118ab3e090174U, 0x3e830181be09a2f3U, 0xbdafca68bf6377dfU,
  0xbf624d373c9bbbaeU, 0x3d69ec28bc22e394U, 0x3db71b05bdfec7eeU, 0xbd251a54bf72c800U,
  0xbf42760cbd8a4195U, 0x3dd631cd3b641cb0U, 0x3e831214bdab0072U, 0x3d2df08fbf550b44U,
  0xbf315ee0bcf50b8bU, 0x3d6f44173e096ef6U, 0x3dd80988bcc49a36U, 0xbd414561bf2ba2dcU,
  0xbf27a911bc9b7e4aU, 0xbd9720393d9453b0U, 0x3de2bfe9be12fdd3U, 0x3c1eb8d0bf161d7eU,
  0xbf45547a3cdd29f6U, 0x3e38028e3dfbc12fU, 0x3e4ece723c231d2aU, 0x3c08a1d1bf2bdd7fU,
  0xbf2984473e3f2487U, 0x3d92e83b3d060f53U, 0x3e441b93bdf90900U, 0x3d498aabbf378ebbU,
  0xbf5ba0313e060818U, 0x3ddd54b3bcfc9a3cU, 0x3e2e4968bbb0a9abU, 0x3dbbe57ebf68d799U,
  0xbf1c393b3e2bd33eU, 0xbd63e3883e04a4a3U, 0x3e7d0d3fbe1ed3b0U, 0x3dc1fbebbf0f83bcU,
  0xbf228fdd3e2dcec5U, 0xbda4d72a3dce2cebU, 0x3e5c1b8ebccbbb3cU, 0xbcb57fd0bf48fb47U,
  0xbf2c0cd03e0a34ceU, 0xbe0bf244bcbc8ecbU, 0x3eb927d1bda9f6c8U, 0xbd9837cbbf0c0677U,
  0xbf2fef903a82a2edU, 0xbe8639003bacc36eU, 0x3db24e413d4a8831U, 0x3d69e2b7bf1e6d9bU,
  0xbf7c69d23e4b5d37U, 0xbeb687edbc97e494U, 0xbc6cadc4bd461de2U, 0x3dbcafdabf253ddfU,
  0x3e6874febe0a4e25U, 0x3cda11bebc150ac0U, 0xbd5179403e11602bU, 0x3daa35093e7ffe61U,
  0x3e83d583beb1c241U, 0xbe24c1db3e071429U, 0xbd8a77df3d803f8cU, 0x3d6d07cd3e88be35U,
  0x3c86ee2bbd91a7caU, 0xbdaf30d23e343a89U, 0x3e09139b3e114488U, 0x3c7401363e5201b3U,
  0x3df8b92cbeccc050U, 0x3cf91dc73b9f544fU, 0xbde16ddf3e23554eU, 0x3dcaf1323e2aa445U,
  0x3e844c1bbdaf7486U, 0xbd8625ef3e392aeeU, 0x3d4003d53d6b46b0U, 0x3d9ff5e43b671b01U,
  0x3e1c79dcbdc5ea11U, 0xbdd0fb84be00aa3cU, 0xbd9abe2ebc89c973U, 0x3d5f31b03e38e37dU,
  0x3de84f30be9708e1U, 0xbd4cf70ebc8aa15dU, 0xbd2db9d13dec57e8U, 0xbdb515eb3e9f279fU,
  0x3d06efdcbea74d12U, 0xbe039d4b3dd21024U, 0xbd268f3e3db990b7U, 0xbd4017dd3ead5468U,
  0x3e9d9f19be94716dU, 0x3da7f13c3d8fbec4U, 0xbd33344abd823a30U, 0xbe2294813e0fadbfU,
  0x3de2c9b9be2707a4U, 0xbdde99223c1f38a6U, 0xbdc999d03ddf9217U, 0x3e1a552e3ebe1b15U,
  0x3e4809dcbe31c4d8U, 0xbe1420183dac679dU, 0x3d88a5c63da46990U, 0xbe05d4b23dbea562U,
  0x3e0988f4be158d28U, 0x3d9a05cd3e24ad9dU, 0xbe0245c23da737c1U, 0xbe14f65c3e613036U,
  0x3e910b13bd2adfa0U, 0x3dd1ad623d6d05e7U, 0xbe420083bcadf8a4U, 0xbde0224a3d9ed647U,
  0x3e47d4b4be9030c3U, 0xbd4818f5be1f34c8U, 0xbdd4dce23e012867U, 0xbe0f8e4c3e239a19U,
  0x3dc5a862bcf9f4a7U, 0xbc89a55bbd9da2ceU, 0x3e006a493dd06f84U, 0x3d7228b83e973ac1U,
  0x3c9a46eebe70d3c8U, 0xbb9a0198bd5d985aU, 0x3c4b11bd3d7732daU, 0xbcf1fc553e2eb9c3U,
  0x3e188231be034eb4U, 0x3d3bbae0be3acbcaU, 0xbce0137a3e12137bU, 0xbdeb58663e27d0ddU,
  0xbd19a387bd634388U, 0x3deb8e3c3d1a0fdcU, 0xbda640bc3d93ccb5U, 0xbdefa1b53c953e26U,
  0x3e134a0dbe60f8a6U, 0x3d7921663de6adcaU, 0x3cb557273db6f11cU, 0x3da4f82c3dd5d1d9U,
  0x3ea27e26bdfe9890U, 0x3dd679853e14f772U, 0xbe6087debde7bbe2U, 0x3cefe1e03dba7c7aU,
  0x3e0c6558bdbe0040U, 0x3dc8c37ebbfcd1a2U, 0xbe4f5bb3bb081d97U, 0xbd2a73c03e9aedb3U,
  0x3e5d74aebe5f4dc5U, 0xbda640a1bcfb6653U, 0x3cc6ad2bbdd6982eU, 0x3d97ca483ea67f05U,
  0x3f0de14c3d86c9a5U, 0x3e444a1d3cd35eecU, 0xbe60bb063d8de3dbU, 0xbdc1fde23f2e08b9U,
  0x3f1d92813dec9082U, 0x3cf15d4b3d6218c1U, 0xbe64c0ae3e4636d6U, 0x3e09668a3f044f58U,
  0x3e707db3bc61ce33U, 0x3e1439763d9096b3U, 0xbd94a1d93e0c84b0U, 0x3d27db583f13e4f3U,
  0x3eb7c562bd2bea07U, 0x3e0d62b4bb99471eU, 0xbe5729583da63e0fU, 0xbc0ccd673e90ef07U,
  0x3ed347043e0190ccU, 0x3d5f9ed2bd26533aU, 0xbdee77d83d49d952U, 0xbcf0a8133e656982U,
  0x3ee31814bd0cc55dU, 0x3cdfcaf6bdd1e730U, 0xbe77f261bbcfbcfaU, 0xbbb21c353f137565U,
  0x3f01152e3e032bf5U, 0x3d6926403dcb79afU, 0xbe23b6ca3e156266U, 0x3e5015883f2dd47cU,
  0x3f1785df3dbedfe4U, 0x3e4f1d143c2c6238U, 0xbe512884bdae3486U, 0x3e71b1023f1d6bc1U,
  0x3f17c36a3d000719U, 0x3daeefedbde83d82U, 0xbe47cf713e1fa936U, 0x3df095df3eee6ef3U,
  0x3f4fda3cbcaa94f8U, 0x3e79a1f33e4aa7d1U, 0xbe7ab6283ca828c3U, 0x3cc96cf73f4864a9U,
  0x3f0f1fb5bd8dfc6cU, 0x3e4d97593e196badU, 0xbe8fb40c3dd7e181U, 0x3dcc7e053f2768b0U,
  0x3ea554c73d81bd75U, 0x3e18eaaa3dc9676bU, 0xbe55459dbd47e76aU, 0x3c953c583f246c1fU,
  0x3edec0e2bd070fb5U, 0xbd8e32103e3b5715U, 0xbe041a273e4289efU, 0xbd75bbe13f3ffcd7U,
  0x3ee1e12dbabdae7bU, 0xbc842785bc8f1e6bU, 0xbe4a99f73d16524aU, 0x3d75fc2c3f3a9ec4U,
  0x3e7de8f8bd1c4efaU, 0xbdf79e94bc8d352fU, 0xbea43732bd505bf7U, 0x3e18bc243ef3cd26U,
  0x3f090e353d5290dfU, 0x3ce3dd9fbd7129ceU, 0x3d454cca3e0ceda9U, 0xbdbaa54b3ef9549fU,
  0x3eefb84f3de5dc83U, 0x3e5047d23e051ecbU, 0xbc0c3261bd9a7f62U, 0x3de3323e3eaefa55U,
  0x3eb206f13e181560U, 0x3e40b45a3b841111U, 0xbe23a0f7bdffa0caU, 0x3e38b6993ef90725U,
  0x3ebabf353d86bfc8U, 0x3e4268613e0cff87U, 0xbe99411cbda1c162U, 0xbb6537d43eb6506cU,
  0x3f017cf63d6c8001U, 0x3ea236aa3e2246adU, 0xbebcb6b23c452bbbU, 0x3d9d28d53f23973bU,
  0x3f1fe4053c279b0aU, 0x3e26a0963e129342U, 0xbea0d04c3d8bd003U, 0x3e3c8f7f3f0e6fceU,
  0x3f2152033da3624aU, 0x3eedbe333d8e308bU, 0xbe4077243e40b306U, 0xbd61c5623f328970U,
  0xbea4f56f3e1c86c5U, 0xbe1f8d053e29638bU, 0x3e0642733e073f14U, 0x3eaec14dbf166300U,
  0xbea8c8eb3de2ecc8U, 0xbd8e24893d110f68U, 0x3bc2190abc4c5ad4U, 0x3ebdcd75bef8bad1U,
  0xbdeb09dc3e453c2cU, 0xbe16fa6f3e92a0bfU, 0xbcc5365d3ccff776U, 0x3e53ed85be6915c4U,
  0x3c398e8d3dc2b951U, 0x3d3490a63e438220U, 0x3d90fec63d670ce3U, 0x3d2c004bbeb1df2aU,
  0xbdbf5a403e6b7c28U, 0xbe0569623d85b953U, 0x3da82d87bdb11914U, 0x3dfec871be8616beU,
  0xbbe723e7bd02430aU, 0x3dc8677d3cf4c5eeU, 0x3d936b073e1da132U, 0x3d3caf3cbe76ecbbU,
  0xbcd5b1febcd1e728U, 0xbc4ad0603e02894aU, 0xbcf2f05f3d82a8c3U, 0x3cd0302bbe7abddaU,
  0xbe689f1e3dd1276eU, 0xbd991bb4bc0b9618U, 0x3e4a22db3e383910U, 0x3e206d5fbeb12d90U,
  0xbe76c521bd1e0707U, 0x3d0559dc3e742820U, 0x3db4546bbce43845U, 0x3e20f264be57fbe5U,
  0xbea62abd3e6cd92cU, 0xbe31ef14bd5f38e8U, 0x3e2d90e33de34121U, 0x3e930e39beeff0c3U,
  0xbe639c063dd0ea61U, 0xbdf7fb503da1e55fU, 0xbc6e7d133d90c5c7U, 0x3e9e10f9bec9b066U,
  0xbe8f03333e0c45ccU, 0x3d7621d03e9fd08cU, 0xbd2287da3db6972cU, 0x3e1b0086bec06ff9U,
  0xbda8ea393d83d7eaU, 0xbd9f2f0a3e612154U, 0x3d79b7933d3a45e0U, 0x3e7c2941bf0b5b31U,
  0xbea697553e013ee4U, 0xbe13c3e83e977b3cU, 0x3e7944e63db6a625U, 0x3e4f1643bef43358U,
  0xbe603d7c3e4b9082U, 0xbd263fba3e314addU, 0x3d1e58113e279e0eU, 0x3df11c18be42f9fcU,
  0xbdb241d63e5ae622U, 0xbe21bbc43e1342d8U, 0x3e2783d53e272d56U, 0x3e87eaf2be4611b9U,
  0xbe45e8e9bd095904U, 0xbdfe3e943de4754eU, 0x3e3a5c603cb454b8U, 0x3e52d54bbe1b5ad4U,
  0x3d9b5b0f3e35156bU, 0x3db37f143d8fb74bU, 0xbd414e333e0a3f51U, 0x3e6a0756be57bbc0U,
  0xbc5db00b3e445255U, 0xbe04ab873dcf62cfU, 0x3d7e70603e502a71U, 0x3e782c9abe22cf8eU,
  0xbe7ca5973d03f11dU, 0x3ce66a533e939f5aU, 0x3d79856f3c5a44b1U, 0x3e7de569bea3a82eU,
  0xbe3a04cf3da6c669U, 0xbdb0e5953e8f31beU, 0x3da927513e139100U, 0x3da0ff02becdd58bU,
  0xbe860ab03e209967U, 0xbd49d1103dd3aa50U, 0x3dac7cb83d5c1f64U, 0x3e5834ccbe70f13eU,
  0x3e57f63d3d4fdd87U, 0x3da40f93bd8a6f8eU, 0x3dc206cfbe0e7b19U, 0xbe802f673c8fa169U,
  0x3e8c3b5e3dbdfc7dU, 0x3e3ca8ebbe06ba71U, 0x3d502412bd9586feU, 0xbeb4495d3e7b29c9U,
  0x3e0d9070bddd6cecU, 0x3ddf8c87be7f34d4U, 0x3e2f14e03e0de440U, 0xbe7d6f103e77e794U,
  0x3dcb2f71bcde221aU, 0x3dfe36a2be687c0eU, 0xbcd1aede3e12ac81U, 0xbea2d1f239ecf8bfU,
  0x3e0569c3be0b18e3U, 0x3e14ea1ebdfc5b57U, 0xbcfe10cdbe14de27U, 0xbe38b9053e5e39c5U,
  0xbe00453e3de47078U, 0xbd1e406bbea39f14U, 0xbcb334d3be29232bU, 0x3cea14af3e3708ceU,
  0x3db8f204bdfe1de3U, 0x3e495fa4beac4cb6U, 0x3d637f35bdb6e3fdU, 0xbd154aa03d8878d4U,
  0x3e1e7e2a3d5304f5U, 0x3d2d9b30be457455U, 0x3d1be98cbe8a264fU, 0x3c846ec6be092c63U,
  0x3e2cf3743d8e7025U, 0x3cb0fce0be46d417U, 0x3ca3f7c9be40753aU, 0xbb24e2313d477672U,
  0xbcc493cdbe40708aU, 0x3dece38abe4b5456U, 0xbd507ca1ba519929U, 0xbd3030ab3ddf1ff1U,
  0x3c82928fbd1b9176U, 0xbd3a1fefbe64c0ecU, 0xbd7c63463d99cb7eU, 0xbe4052e93de6213fU,
  0x3e64e79a3d71b47eU, 0x3e3b3eeebc33ef68U, 0x3ddfcb873cc2551dU, 0xbd8c4a533e035d59U,
  0x3d1c01663d4552e0U, 0x3d9748a9bd61394cU, 0x3dd09cf73d9f41f5U, 0x3c9778eb3e309f90U,
  0xbe106219bc69566bU, 0x3d8cd25cbe440864U, 0x3de04ee43b6e5135U, 0xbe5fcd223a5baf9cU,
  0xbd9f263ebd265119U, 0x3e49b685beb2d155U, 0xbcce28a5be6b46d8U, 0xbe260be93d99771fU,
  0xbbebbf80bc0d3c7fU, 0x3c6d99ccbe5e9d50U, 0x3e5b9b98be83647eU, 0xbe2997a43c52f942U,
  0xbd740a183d5d1848U, 0x3e853d0bbe921236U, 0x3d8ef917be18717aU, 0xbe54aed4bd99e795U,
  0xbc8ab1f43bd1c51cU, 0xbcfebef7be900f29U, 0x3e2f41d03c990313U, 0xbc592a7f3e77cf11U,
  0x3e3931033dc2edc7U, 0xbd3ba244be22c8d4U, 0x3dddd7eabe068ee4U, 0xbdb95d8b3e9ba5eeU,
  0x3e4609a83db2e254U, 0x3daeb51dbdf5a966U, 0x3dc7f40d3db70e84U, 0xbe0352a13d24a023U,
  0x3d834a573c3e31a1U, 0x3dc00a1abde0bf10U, 0x3e317c9f3d5c8597U, 0x3c8daa02bc9ba519U,
  0xbd9a09fabe2b8fc3U, 0x3df928fdbe1edda7U, 0x3e53c5aebc76cee0U, 0xbe9d63113d945d7cU,
  0x3e9c75bbbc7d30e0U, 0xbd57566e3c5ad13eU, 0x3d8222a5bd8b3bb0U, 0x3e2e76ee3e85441dU,
  0x3dc74b2ebe8b322bU, 0xbc97d0b5bc3741afU, 0xbd5b03313e3ac7a3U, 0x3e4731ad3dc2aee2U,
  0x3e1102ca3d25b4c6U, 0x3d16e4c9bdab456aU, 0xbc5ac2b63dad3f34U, 0xbd37c6b73c0ac45aU,
  0x3e1d3bfbbe83e953U, 0x3d940d54bd44bc07U, 0x3e0e03c4be111a7bU, 0x3dbb6fa33e1d0efbU,
  0x3cb6cee6be07aef5U, 0x3d151b853de48563U, 0x3d062f25bdacedfbU, 0x3e1464943e52ed91U,
  0x3d3d4a23bda98b16U, 0xbe0c10e0bd67f104U, 0xbe14849ebbf2f72fU, 0x3c7878e73ea5060aU,
  0x3ea6a87e3c9a97c7U, 0x3dd3bac93d323a63U, 0xbd12d07abdb8eff5U, 0x3df696343eaf1ac8U,
  0x3e9ac4adbe0cb93eU, 0x3dde98bf3de3949cU, 0xbe24a9583d50912eU, 0x3cab29d73e4469c0U,
  0x3df68c073c99e866U, 0x3d931c1d3ddee243U, 0xbc4fa0663dbca076U, 0x3d6ca94a3d53d4c4U,
  0x3e949b5abe1054cfU, 0xbdb9c86d3d7f5ff5U, 0xbd9217513e5d655cU, 0x3e3f35c73e07af9eU,
  0x3e51d81dbde4fda2U, 0x3ce3abc03de33b39U, 0xbe18d6913e2774d4U, 0xbe00f0143df2de26U,
  0xbb019424bd3bfa8bU, 0xbe15abcdbda3878aU, 0xbcd03a15bdb3a116U, 0x3cf021903e047611U,
  0x3e7ed049be01ef37U, 0x3c30de5a3d7781a9U, 0x3d2a7bf33d1d4b1eU, 0x3da293a23dc136c3U,
  0x3cf87ba2be054b01U, 0x3bf744ff3e1711efU, 0xbccfba963c30a654U, 0x3e0e86503e98f2ffU,
  0x3e042a69be1d0640U, 0xbe05d2693e25d21fU, 0x3d2478b03e340876U, 0x3d8afec53c9fe3deU,
  0x3c7b7eb2be18fb9dU, 0xbd523a5c3b20397bU, 0x3d8373b7bdcdbcf5U, 0x3e20decf3e90717dU,
  0x3e7af092bd3cf250U, 0xbd2e42933e078888U, 0xbb9235243defd133U, 0xbd5411b93e260aa2U,
  0x3e3673b0bc4ac16dU, 0x3d728d843de747c0U, 0x3de4ccc13d03e9b4U, 0xbd678e1d3da96854U,
  0x3c28e5b0bd45cbbcU, 0xbd676b76bd35e6afU, 0xbd0db4bebc8b189aU, 0x3e4384d33dd53556U,
  0x3e1c2c45bdfb1a75U, 0x3db4db2c3dbd2a32U, 0xbe6276ba3e14eb4bU, 0x3e7b5e6d3e318ad6U,
  0x3de953efbe1928e3U, 0xbdb2cd00bdae74bfU, 0xbd1bf58c3e144845U, 0x3d2ba4aa3e6ad5c5U,
  0x3dd066deba896c30U, 0xbcfa42ac3da1656bU, 0xbe915741bd9cea0aU, 0x3da80e1b3e84fe79U,
  0x3dfc3bcfbce76d78U, 0x3ea96ca7be84ad32U, 0x3d72829abe9873eaU, 0xbe8ff50c3cff88a1U,
  0x3e4f53373d9877c6U, 0x3bb0cfd9be5d5775U, 0xbd9df367bcffdb85U, 0xbe3a4ef13d8859a1U,
  0x3ddeb0eb3ce2e17dU, 0x3e3271b6be7b2684U, 0x3e225258be6ecb74U, 0xbeb901623e2d317aU,
  0x3dd97b823d8a55c3U, 0x3c52dd1fbe588580U, 0x3de206293c53f27bU, 0xbea450773e9776e2U,
  0xbe3e1cfe3dcb2b46U, 0x3e3bc2bebea2d243U, 0xbc01c2d8bdd7cf75U, 0xbe8d7b8f3c9e7d4eU,
  0xbdaa576f3e10869bU, 0x3d999843be9cd7e6U, 0x3dc2aef7bdfe7034U, 0xbeab5da53e150922U,
  0xbe668c65bd7ebeaeU, 0xbd79e0afbe9c55a1U, 0xbcd99344be948fbaU, 0xbdaf89503db2f9b1U,
  0x3ba398963c856a7eU, 0x3c6f27a3beed406bU, 0x3e4e83e6bdb3184dU, 0xbe2af7913e44fd89U,
  0x3cdb6df4bc9f59a2U, 0x3dd2343dbef18c8cU, 0x3e0f31b0bc72faf4U, 0xbcf0bdb43e231995U,
  0xbcd7cf163dcd6d53U, 0xbb423f82bec669bfU, 0x3d9841e9be86e127U, 0xbe4f0d933e984213U,
  0x3d95cebfbd9d99acU, 0x3d7618e2bea4f8edU, 0x3e111be6bdce372cU, 0xbe93c40e3eabe43aU,
  0x3e1507a63cc152c8U, 0x3e0b9794be1aaeb2U, 0x3d999d2bbdd4e98aU, 0xbeb9c6b23e6f278eU,
  0x3e0157833e13fe22U, 0x3d3ece7ebdd9778aU, 0xbcd4c09c3b4daf4cU, 0xbe88d7463dc95e72U,
  0x3e18e7dbbb647dd1U, 0x3e830ed1bead2667U, 0x3ca19952bec4c6ccU, 0xbe1ccc0c3c1aee4dU,
  0x3d63cf7e3b36bfd3U, 0x3e833e10becd7b3eU, 0x3d28e010beb1aae6U, 0xbe50dbd23e8de9e0U,
  0x3e0a04c83d35e8d1U, 0x3d5ef5b7bf094c35U, 0xbb2dfe66be9df199U, 0xbd4e87d43e5fb6c4U,
  0xbcd3035a3d4a5f49U, 0x3e4fed1cbf0d4be1U, 0x3e1091a7be4ff623U, 0xbe6da46d3e00903cU,
  0xbe12a9d33c4ee193U, 0x3e540db0be9b08d6U, 0xbd1501a9bec395adU, 0xbe8ee5203e91b771U,
  0x3e337337bdce0e1eU, 0x3d32f065bed5c899U, 0x3d8d6df4be9efdc0U, 0xbe27b1da3e5ac9b5U,
  0x3dc9e919bde647a0U, 0x3d2b0da6be4e95f4U, 0x3e0208c9be29f9bdU, 0xbe1378e23e5ac415U,
  0x3e0b1c633df5b851U, 0xbda4cba5bede8d2fU, 0x3de79c63be0fcee6U, 0xbe7fd8a63dc23c1aU,
  0xbd1566973dd544c3U, 0xba9de36fbe4c1ea7U, 0x3e81c6d0bea83ee2U, 0xbeaeaa59bcfc50c7U,
  0x3def1d37bec24238U, 0xbda27de9bdf90242U, 0x3d4886ca3da8596cU, 0xbe6004d03e6ec0e5U,
  0x3e0c4dd2bdc4276aU, 0xbc67800bbd2f4f17U, 0x3db241c43e137192U, 0xbe0397f93e9bf26eU,
  0x3e6d1117be90908aU, 0x3e4592fc3db3bfb7U, 0xbde7a8b73d1854ebU, 0xbda3c6d03e7892f2U,
  0x3e0cb724be76567fU, 0xbdc6743f3cc93b41U, 0xbe1a30a9bcaa5ef2U, 0xbcab78ad3cbb422cU,
  0x3e262249be819911U, 0xbdf3cccfbe08efeeU, 0xbcea6a033df978c3U, 0xbd1a40b1bc33cb3fU,
  0x3dc8ba4ebe8654bcU, 0x3cdd099ebdaf684fU, 0x3d674dba3d3b35b6U, 0xbd9429e03e2ea3daU,
  0x3e8d8fe9bdfac239U, 0xbdde95a23cf757e2U, 0x3c6f5eb93e2f4834U, 0xbcd34ba13e65a151U,
  0x3e88c537bd7006f6U, 0x3e0eee0fbd69277aU, 0xbe14bc0bbd850677U, 0xbe3200a13e4f1bf3U,
  0x3d5dd4febe8cf255U, 0xbde943d73cac4e08U, 0x3cf76c03bced83b3U, 0xbe5837c43e80cc76U,
  0x3e9219b9be423c0dU, 0x3e190ef7bd96af30U, 0x3d9640183df315a3U, 0xbe16fd063e9820d9U,
  0x3e50cd76bdfe2aefU, 0xbd82e431be209df5U, 0x3d17ab6fbccb1a6fU, 0xbca03b5e3e21f8f2U,
  0x3e13a1bcbe6833f5U, 0xbd2e630cbdf8b181U, 0xbddb56163e2bd33aU, 0xbc493e873e66c0a0U,
  0x3ddf6e06be697188U, 0xbda61920bc91c570U, 0xbe19a2c03e066ca5U, 0x3c80fc893e612488U,
  0x3e19fa5fbda09e56U, 0x3dd6ee353d93bbc5U, 0xbd72d8643dde08dbU, 0x3d4ee3c33e8bf4e8U,
  0x3e88b336bc84e0aeU, 0x3db74e633dead06fU, 0x3d5e39d5bd38b9b8U, 0xbd8bba773e7e5f35U,
  0x3cf73dadbe93a475U, 0x3dc37db3be04da17U, 0x3d4ee3503e0d5bb5U, 0x3c5faac63d622a3bU,
  0x3ea217c6be9db9a4U, 0x3d9546d43c65d92bU, 0xba370e80bcfdfa16U, 0xbd6d0f2c3c6f084dU,
  0x3e70da6bbeabb1fcU, 0x3d341e69bd604bf4U, 0x3dab43113dd8d69dU, 0xbdca9fa33e4d3464U,
  0xbd0fd9acbe7a3bf4U, 0x3df0ce0bbd21c30cU, 0x3dbe559c3d158659U, 0xbd5f817a3e8a18f3U,
  0x3d261d5bbea6e78eU, 0xbe2145f2bdd6b1a0U, 0x3d53e46ebd85673eU, 0x3d6ddad73e70a424U,
  0x3e10666abe31f0cfU, 0x3e46abcebb04d12fU, 0xbe3080133decf6d7U, 0xbdc065083e54d8afU,
  0x3e97693fbde72a0cU, 0xbd882167be631592U, 0xbe31127d3e151879U, 0xbc43efef3e2be9abU,
  0xbe2584213da491cbU, 0x3e8c09cabf0180acU, 0x3e612233bf4bd976U, 0xbf58c0063ec2e920U,
  0xbb17cb963da10f85U, 0xb98e18a7bf586b07U, 0x3e17ff39bf2f144dU, 0xbf1cf5623f247b94U,
  0xbd49faed3e1b9b64U, 0x3da66addbf1398bbU, 0x3db27672bf08653eU, 0xbf2c5ddd3ed22a7fU,
  0xbe8dc78e3daf3831U, 0x3c167141bf385e45U, 0x3e58d546bf1fc9f2U, 0xbf2e9a753ee8bc53U,
  0xbdd4a0933c231331U, 0xbd791e40bf428d51U, 0x3e120797bef221d9U, 0xbf14c9653e94d075U,
  0xbe5ffcd5bcc5d44cU, 0x3e59c48cbf2833b9U, 0x3da18356beff7246U, 0xbf1f66ce3eac1083U,
  0xbde6a9403e31df3dU, 0x3e2410e1bf0000a8U, 0x3e3232ffbee5d568U, 0xbec2fd9d3e958f6fU,
  0xbf03e6743db54be5U, 0x3e33e2fdbed1e5c5U, 0x3e19c26ebeb8e66cU, 0xbeebc84e3dee3d92U,
  0xbe5665103d34b4a6U, 0x3e6c6b0dbf0bf374U, 0x3dc000a4bf02b2b0U, 0xbef17a3a3e1986b8U,
  0xbe34b3cb3d8e59f6U, 0x3d67ba06bf1213b4U, 0x3dbad76dbee9428cU, 0xbf166fa73ed3a735U,
  0xbe390df03e3ae1f6U, 0x3e01400cbf1fa369U, 0x3dd6ff00bf0a3e09U, 0xbf3029833f0cc28aU,
  0xbc9c34093e02f1c7U, 0x3ce0ce9fbf57115dU, 0x3e15c83fbf1de74dU, 0xbf28e4e03ee07a00U,
  0xbe0df1e13de02292U, 0x3e3cbc39bf37427dU, 0x3e478279bf143370U, 0xbf2a405b3edbefa2U,
  0xbe5b7dfb3e823165U, 0x3e74c9e3bf052bf9U, 0x3e82c989bf2a8f3eU, 0xbefbef913efc1715U,
  0xbe0972a53e677fd5U, 0x3d69eaeebf0e3241U, 0x3d66a517bee27249U, 0xbea2bcb83f027723U,
  0xbe860bd63d8d931dU, 0x3e07c04bbf1a51b4U, 0x3d3d00ebbf30cc4fU, 0xbe99cff43edf05fdU,
  0xbece20d33cdbe6daU, 0x3c5b2efebf233aadU, 0x3e55c7eabf05907bU, 0xbedc8abd3d6a61c9U,
  0xbee4ac4b3d86b0a1U, 0x3d835c8bbf2c7ea1U, 0x3d0abb5dbf2ed0bbU, 0xbe8f5d303e444d17U,
  0xbec449ed3e2f8c4fU, 0x3cee2248bf485994U, 0x3e4db56cbf16ee67U, 0xbf1176483e50ef30U,
  0xbe803c673db84d8fU, 0x3e22fb74bf2d53f0U, 0x3e416cbfbf3185f5U, 0xbee3eb853de91d2dU,
  0xbdf3a6b93d790d6bU, 0x3e05ca2bbf2057a9U, 0x3dc3db81bf43cc95U, 0xbf05aa383ed70be8U,
  0xbe598d3b3e19ec47U, 0x3da7a286bf02a840U, 0x3e27047bbf2164a0U, 0xbf7436d83e531ce4U,
  0x3ed451fd3db439a0U, 0x3e28ca5c3d8be7eeU, 0xbdbb206ebd7702aaU, 0x3dc5c8a83eff7f1dU,
  0x3eb551183d8e08fcU, 0x3e0cedf93d55b021U, 0xbd473eba3e039aabU, 0x3db9d41c3f39b68cU,
  0x3e5fd2ae3dc007fdU, 0x3c28054a3db0524fU, 0xbc5760f2bd743db7U, 0xbdbabe8d3ef1dcdcU,
  0x3e8c840cbc85e6fcU, 0xbd442cab3dfa0ddeU, 0xbe29cf3d3da4e339U, 0x3e177fc83e80e585U,
  0x3ea6a8d7bcf88c10U, 0x3df00a243d472b44U, 0xbe46ebc03ce69baeU, 0x3ce867b23e47cceaU,
  0x3ec9e7033dce3aa6U, 0x3e14ebc13d99e4c7U, 0xbcacde343d16544aU, 0xbd8372223f1621f3U,
  0x3ec02d1e3d31b10fU, 0xbdd4f8c93e4ee958U, 0xbd997ff73cdead0aU, 0xbc9cde2c3f0ee96aU,
  0x3efda5d53cc3f21bU, 0x3e2a05583d57c424U, 0xbd4d5ab63cdc301aU, 0x3d22377d3ef8805aU,
  0x3ed7c6c03e277c38U, 0x3e2b3fe93de7b810U, 0xbe888ce33de731d4U, 0x3dd76bd43ef80db6U,
  0x3f18b6b13cccaeb1U, 0xbcdb492bbd804252U, 0xbec166e33e4a7cd7U, 0xbd177e803efb70d3U,
  0x3eb4542a3d9539b0U, 0xbd9abb76bdbd832dU, 0xbec33cfa3e40c792U, 0x3d568a253f12da52U,
  0x3ed88b743d29adfdU, 0x3e08d6bc3dbfd779U, 0xbdc804b1bcf347d5U, 0x3ca0677d3f0214a4U,
  0x3e9be56a3e0b9b70U, 0xbdc0bfeb3cb006f2U, 0xbea19f7dbdfc046cU, 0xbc8cdc1b3f3bb48cU,
  0x3ea01e90bd9acdd0U, 0x3e33c78abd478ba8U, 0xbe06d6903bc2c59dU, 0xbddf9e823ed0c044U,
  0x3e3db7473e11faa6U, 0xbd730a59bd92d1c4U, 0xbe98130e3d676745U, 0x3de50fd43eb7a36fU,
  0x3e2657cf3d7230e5U, 0x3dd539c73e1c70a0U, 0xbd8e4bedbde53031U, 0x3e1008d43eaf226eU,
  0x3ecaf319bd2fe36bU, 0x3e44b97cbdb1b4a5U, 0x3ceed5df3cf6fc4eU, 0xbd9b00a53f0a488dU,
  0x3e16132a3d0aabdbU, 0x3e1e3f49bd2df97dU, 0xbd9004103def6508U, 0x3e0c3e283ef82dabU,
  0x3ec3b24e3e16c194U, 0x3e7d8157bbeb0494U, 0xbe6c757fbd9452ecU, 0xbcd6e7e43ec4b0eeU,
  0x3e87caa7bb2050d5U, 0x3d2e09f23dee3f41U, 0xbe4dce803e161302U, 0x3deeb99b3ecd9e80U,
  0x3ef020573dd1a02eU, 0x3c92150b3dd101a1U, 0xbe9910313da1e5bbU, 0xbd45c5513f112a10U,
  0x3f1aad5bbd430813U, 0x3e0e8f84bdd6554eU, 0xbe91c1163ddd248dU, 0x3d5c71a03f1ec40eU,
  0x3bff2221bdb4cce4U, 0x3e1db7b13d7550c6U, 0xbe26ef2d3dbc17f7U, 0xbe0f389cbb4a5e94U,
  0xba87b957be37feb5U, 0x3d60ca07bbba8272U, 0xbdc2f0e43d9a021dU, 0x3cfb4a38be2ee32bU,
  0xbc3170f13da3c406U, 0xbd45f4a4be38696cU, 0xbdb96dfdbe247dc2U, 0xbe36911bbce47c27U,
  0xbda27083be12330eU, 0xbd39bd04bcc7fd15U, 0xbe1feb5ebc13d4e6U, 0x3d8ff975bdb43e5dU,
  0x3dd3e09d3db1f221U, 0xbd6e7fce3dd565dbU, 0xbe06c778bd874ab1U, 0xbd0dc1e1bd846dedU,
  0xbe4a36013d2264f6U, 0x3cd3fd57bd542655U, 0x3db784093cdc90c9U, 0xbe07b2c0bcc3d6a9U,
  0xbcc28d493b8d2bd8U, 0x3ddb2beebe39c456U, 0xbd131453be2ab56eU, 0xbcff35ce3d310fbcU,
  0xbe2f6d4ebd616f3aU, 0xbda633c4bdec67abU, 0x3d4f4adabe0596e6U, 0xbdd2761a3d8cf12cU,
  0xbd0d6ba8bdb82adaU, 0x3c0fbf2abbb73d71U, 0xbd9e9d353c744f3fU, 0xbe255d633bce4303U,
  0xbd88d43abd7beb8cU, 0xbd311f63bd741d15U, 0x3cad8cf9be0a27baU, 0xbd9746653d467644U,
  0x3d781466bdb09403U, 0xbd0c2913bdd45a92U, 0x3dc30ee03cddc500U, 0xbcb18f81bdcfb47fU,
  0x3c4ffe903c5e0c41U, 0xbdd24ae8be37471aU, 0xbc97856cbdb5f8ceU, 0x3da29ac7bdee3706U,
  0xbe120780be0fb87dU, 0xbd830c603c9d9668U, 0xbe15a703bdfd7d61U, 0xbd9a3f79bd98e29fU,
  0xbe1f910abe23ec29U, 0xbd4422073d94caf0U, 0xbce43240be018bf0U, 0x3d3f4f31bdc168dfU,
  0x3d8dc93dbe6bb112U, 0x3d66e82f3ce7c3c2U, 0x3d9a7d62be26cfe1U, 0xbe150f31bdd7771fU,
  0xbdf7e79abdf0208bU, 0xbd49ab303d9f70c7U, 0xbdfc5ac0be0354c1U, 0x3da1c305be1af2e7U,
  0x3c89d084be353097U, 0xbc68aa033d463323U, 0xbe1d4c50bc0fce4aU, 0xbe2e1c2b3c829653U,
  0x3db4e203bde6367cU, 0xbe21c54dbd5b4775U, 0x3d9b186fbcecd9ddU, 0x3db29900bdc8af02U,
  0xbe00bb3f3d4e2a64U, 0xbe116e88be0eccecU, 0x3dc017c7bd9134e1U, 0x3d7e78913cd9dd92U,
  0x3d8c7c3ebe2b86d7U, 0x3dfe46c53c130b1dU, 0x3d307852be3ea019U, 0xbe339b53bc1ca468U,
  0xbcaa48acbd45a5ccU, 0x3cebebf33d8b5e69U, 0xbd19337a3dd52979U, 0x3dad18f03d5f90f8U,
  0xbd8080f0bdd56120U, 0xbe25dc303d1be62aU, 0xbce9cc383dd5ffa5U, 0xbe08f22ebda9583fU,
  0x3e6a065abdb5b675U, 0xbd6c91343d750461U, 0x3e2a7d193d92fa46U, 0xbb2d69113dd91204U,
  0x3e81df02be948f6cU, 0xbd8435093dc5d1cbU, 0xbdc2b5933d745b57U, 0x3d5c26bd3e1ab378U,
  0x3c7a79f0be2b5b0eU, 0xbc7e21da3d46fea3U, 0xbde9f0223d3183caU, 0x3e14f8233df22dc4U,
  0x3e36cdfcbeadb035U, 0x3a372c50bdfe2c14U, 0xbc396237bd394b53U, 0xbdc3f6673e4e4af8U,
  0xbca643c8be321aa5U, 0xbb950efdbd8716bdU, 0xbd58ebb93e372a7fU, 0xbc24eeb5bd912cdbU,
  0x3e331e38be8e48c1U, 0x3d911a003dbc8ec9U, 0xbe0e5f1f3dd492d2U, 0x3d897c2d3e491504U,
  0x3e6c52b2be65a157U, 0xbccd2d703d52af59U, 0xbde6841d3cd6f8fdU, 0xbcabf5483d875ec5U,
  0x3de044fdbe5df7f6U, 0xbd410d24bd5e8919U, 0x3d7955fd3e4a9d85U, 0xbdf06e863c8fe2f9U,
  0x3dc371efbe218cf4U, 0x3de0a3afbd8a3763U, 0x3e074a173d3902bcU, 0x3cccae143e93c1d4U,
  0x3e0faa83be2c0b03U, 0x3dc7527abd939631U, 0x3d031271bb408c20U, 0xbdc5a17a3d5f8773U,
  0x3e6d4bd8be51ac09U, 0x3da84f073dc6003dU, 0xbe03d1d33df430adU, 0xbc0ba94f3e8cc089U,
  0xbd076aeabe29f380U, 0x3ddcb9babe036aadU, 0x3c35969dbdad6bc4U, 0xbd77f0583e597552U,
  0x3e79fb29be8d0afeU, 0xbcea79a63a1ba555U, 0xbd4991a2bc59c8adU, 0xbdeaff283e93186fU,
  0x3e277874beb14e7fU, 0x3dfd7240bd5dbec6U, 0xbd0fa246bdc4457bU, 0x3b89009d3d7c1593U,
  0x3c9f8cb6bdf84835U, 0x3d963748bca65947U, 0x3e1c3ef53d229c1dU, 0x3d0961203dcb98bfU,
  0x3e88baa0be7c623dU, 0x3ce518ce3d85812cU, 0xbc44cd083dca0680U, 0x3c5ca7d73e3e30acU,
  0xbcaa7ac4bd738034U, 0xbe1795a4be0ba25aU, 0x3dccfe4a3e388ee9U, 0x3d6ab7693e56f1e9U,
  0xbd6753ebbe23e639U, 0x3d216a56bc5dddf6U, 0xbd6155f93e158ff5U, 0xbdc863e43c81fd54U,
  0x3e733dc0be9e5d6aU, 0xbe24fb42be2e778bU, 0xbe12723c3d7b2e79U, 0xbdfa01dd3c36612cU,
  0x3e394a62beac17c1U, 0xbda4ada8be223630U, 0xbb835e5cbd3236aeU, 0xbdc350c73de1f7f0U,
  0x3df6bff8be3f7a11U, 0x3c6cad62be1973cdU, 0xbe4db1e2bd39574bU, 0xbd76cf4e3e82f05cU,
  0x3e64575ebeab6763U, 0x3d926c8bbcba920bU, 0xbd7aeedc3da89383U, 0x3bbdba4c3e870945U,
  0xbeb4802a3e2fb3b0U, 0x3e05353e3cfcbb9cU, 0x3e6834963c5c275cU, 0x3d2bd88cbe16eed5U,
  0xbe914d763c587bfaU, 0x3dfd8fbb3da15f00U, 0x3eb3a37bbe011f3eU, 0xbe0c5640be546c64U,
  0xbe0e80e83de37b10U, 0x3d8749933dadd9e3U, 0x3e08863b3e370bf3U, 0xbd9cc0d23cfd3799U,
  0xbe6d05633e835b0aU, 0xbd02cb003d29acf7U, 0x3e3751edbc9d6788U, 0xbe9ca1b73e0f7306U,
  0xbe40416a3e156c4eU, 0x3da2408e3d93fea2U, 0x3e4cbbebbe06a002U, 0xbc5907adbc432d87U,
  0xbe63ff043d0cd784U, 0x3e0664fc3e20c1a3U, 0x3eb2b48bbd44ac8eU, 0xbe00c07bbe7253cfU,
  0xbe5ff5543dec4c0cU, 0x3df742343c460ec0U, 0x3def8202bc7b8b31U, 0xbe535a2fbe2cd7b3U,
  0xbf182cc03e5ccc7eU, 0x3db9f3933d405300U, 0x3e5314643d8883d9U, 0xbe5167dcbe59ef8dU,
  0xbf0f37ce3e680032U, 0xbd05a1033e054d7bU, 0x3e1dfd0bbc9711d3U, 0xbe4acfecbe11c595U,
  0xbf1cc3fc3ab6c71bU, 0xbca0a0433d76378aU, 0x3eaefbe9bd78f06aU, 0xbbee0e03beba65c2U,
  0xbeb18b7e3df8efbeU, 0x3e3925333c8a105aU, 0x3e0eaf04bd99cbf3U, 0xbe407762be702b35U,
  0xbea2abea3e6ddda3U, 0xbc296371bd9b5046U, 0x3e293959bdffc8daU, 0xbc986f8abe2e47a2U,
  0xbe7f8de23e49b53dU, 0x3dca6c293e0fa967U, 0x3e0a06913e3f5cf0U, 0xbe0f7c7fbe41f89eU,
  0xbe8bc2ab3cd204a7U, 0xbd3983753cb53001U, 0x3e334365bd16c1a4U, 0xbde41499be2d25fcU,
  0xbe123dd13d3c32edU, 0x3e0d27f53c8b79b5U, 0x3e839bb33c12d573U, 0xbe540f85be6c3f1fU,
  0xbe6f6bee3e4e0c0dU, 0xbb1350633e026632U, 0x3df94e8a3b249585U, 0xbdfc3241be3ed60cU,
  0xbdd441af3e19ca27U, 0xbd52737c3e2d7bf9U, 0x3d78459d3d987a93U, 0xbce532af3cc4b0baU,
  0xbe65c0f53dbf8aabU, 0x3dfee579bdbb8c67U, 0x3e8425023c2204f7U, 0x3c8a9a57bd11b6c2U,
  0xbede09d23e6e798eU, 0x3c2468523bf3002cU, 0x3e5a51963e426143U, 0xbe1d5d28be387f4eU,
  0xbeb24e0e3d5b64f0U, 0xbe3121e7bc9cd83dU, 0x3ea25637bd3a9728U, 0xbe483971bd9cb4a4U,
  0xbec251ab3e30a7fcU, 0x3b5136d3bd01a0f9U, 0x3e2d3e8c3d39d1b0U, 0xbe0be366beb3566fU,
  0xbf0676cc3c94181aU, 0xbdff4b293d9beed9U, 0x3ec4ac043e120d85U, 0xbd1d22b1bdf809b8U,
  0x3dc65948be7ca4b9U, 0xbe1851333be698d6U, 0xbdca0a46bd06b841U, 0xbd790fc53e9ec642U,
  0x3d0ed20fbea9c120U, 0x3d3da9e4bd5bc4ceU, 0x3d56ea703db15cfcU, 0xbd9f40f53e90156cU,
  0x3e0141e3be4a43b4U, 0xbe07ab56bb2c2bc6U, 0xbe271025bdb88388U, 0xbd22834c3da7f74eU,
  0x3de0c655bee5bca1U, 0xbce96cc23d16487cU, 0xbcc7106d3d12bbd5U, 0xbcf3ffd83c807636U,
  0xbc48c7c2be87053aU, 0xbcf3845a3b996ccbU, 0xbcdf5fc0bc8e1bcfU, 0x3d0afb5a3e3b11cfU,
  0x3e9a43b3be623790U, 0x3d4b38f53da702a1U, 0x3e19c44d3e30a460U, 0xbc14755e3d58a93aU,
  0x3ea19173be4813f8U, 0xbe04a163bcc5c39bU, 0x3d804ac43e541544U, 0xbc91f2643e9faecfU,
  0x3e84af9bbe894c58U, 0xbe2a8186bb9438f5U, 0xbda48a89bc8c1623U, 0xbd9c9ad13e8b20b7U,
  0x3ea15c58bdf563feU, 0x3dc47fe53d007eacU, 0xbdd87e64bd3fa311U, 0xbdf4750c3e7a104eU,
  0x3e793270bea9114bU, 0x3e02e8b93cde0f58U, 0x3dc985db3cb87732U, 0xbd9b53b33dbe2dc1U,
  0x3b9926d8be32c2f1U, 0x3dc7c43cbdfa2be8U, 0x3d88b6a53b129e4aU, 0xbd1067343dfdae89U,
  0x3b689085bdea0172U, 0x3d29273abe0aca17U, 0x3dc9bb72bd8973bcU, 0x3e35c4573e8c2b4fU,
  0x3d0ea9ccbd463ae9U, 0x3dcabd34bd9ec4deU, 0x3d31f2e33cedbb6aU, 0xbd7278c73e8258a3U,
  0x3e3051cabddfd0cfU, 0x3d6fd5953c7cf0f7U, 0xbd4827303d1aea4eU, 0x3dc1b5a63cea4012U,
  0x3e8313b0be9562e3U, 0x3ce563b3bd98a91cU, 0x3e0f7d253e413036U, 0xbd8a7ac93e6f5a77U,
  0x3d19ebcbbe7fb11eU, 0xbd1513db3d9ba99cU, 0x3e0910373c032c1fU, 0xbd7312d03e15e69fU,
  0x3e819ea1be0a0aa1U, 0x3d6c3ee23dad7bb8U, 0x3bc43524bd5d110bU, 0xbd6148233dc051a3U,
  0xbd3a4688be8549a1U, 0x3cb413ce3d4e52b7U, 0x3cd1ab813d468ceeU, 0x3b968f1d3e5c92c3U,
  0x3e361cf8be70ea94U, 0xbe35b6203d0136ceU, 0xbdee30c53d9fe653U, 0xbcbc83d5bd0647cdU,
  0x3e246c52be79b801U, 0x3d2dd7713cbfbf3bU, 0x3dbf6a4cbce6f212U, 0xbc4b0f093e2e32dbU,
  0xbcf37515beb13217U, 0xbdb86632be56c51aU, 0x3de368773d84b1b6U, 0x3d662aec3e5c1194U,
  0x3e903078be4c551cU, 0xbdf766ebbd4f905dU, 0xbdd72075be0945f1U, 0x3e04595a3e42a206U,
  0x3eadeb513d2530b7U, 0x3d0e538f3e0f8aa6U, 0xbde055e03beea024U, 0x3e09a0783ec88a34U,
  0x3e2cc2c83ccfabb5U, 0x3e1517e5bd996cb8U, 0x3dec7c2d3e444da2U, 0x3e223cab3ec316a6U,
  0x3e648e6c3da855a5U, 0x3d845ec03e0ae88fU, 0xbdde2d133c248070U, 0x3e315bfb3d842b88U,
  0x3de735173d56b7bfU, 0xba67f9443df43637U, 0xbbcbf671bcbb7fbfU, 0x3e90127a3c21503eU,
  0x3eabb4a1bc2e4b96U, 0xbc3e5c5dbc52ddecU, 0x3b84dea83d68c308U, 0x3df543a23d7165e6U,
  0x3ec9b2dd3ccd8fc3U, 0x3d970a043e032a26U, 0xbe45a7133e232831U, 0xbbc6fdea3e5212f6U,
  0x3e27d7f73e09fe20U, 0xbd5d64063ddc28fcU, 0xbde840a8bd6a3496U, 0x3e2da5323e8b0456U,
  0x3ee8e3cabc7fccafU, 0x3e557d453e695036U, 0xbcea67fe3e3512ddU, 0x3db00ef73edbab3fU,
  0x3e854ff23ca1d510U, 0x3d5bdc073e656a2dU, 0xbdcc7470bdec551eU, 0x3df860aa3e73e1bdU,
  0x3eb51e613d613cb2U, 0x3d0dcf05bd57c1f4U, 0xbdfa7729bc9cdec1U, 0x3e27387c3eae8711U,
  0x3e2fe6243dcc2b3bU, 0x3db7abb7bc3b4503U, 0x3d0a61853e39b143U, 0x3d784c303e615976U,
  0x3e5ad22d3e09c3a8U, 0xbd3f8c1d3e86653fU, 0xbc93eb403dda9d20U, 0x3e4606493eaae1b5U,
  0x3eb256fe3da294c5U, 0x3d95625e3e7b681cU, 0x3df2fb8abc93c25eU, 0xbbb8aa953e17e467U,
  0x3e33d90dbd066543U, 0xbd4e84403d56dd62U, 0x3c7ece883e4893b0U, 0x3d1131363e5631bfU,
  0x3e877a9d3c4fbd0cU, 0xbd19cebf3e6bdc19U, 0xbd8b0d603e806560U, 0xbd23dc783e8ec98bU,
  0x3dce75cabb9ed518U, 0xbd43123d3e186293U, 0xbe0a68943e371909U, 0x3e33ff1c3e6410a0U,
  0x3eac254cbc818eccU, 0x3d817b5f3e02ff82U, 0x3e0da3d5bc845109U, 0x3ce2e4ed3df88a2aU,
  0x3e4a04de3cf56baaU, 0x3d4c98eb3db40291U, 0xbcb766d3bb502d9dU, 0x3cc2d15c3ead837eU,
  0x3e87ff1ebc5000a0U, 0xbd858aeb3d7a96feU, 0xbc1d1ee7bd54aeadU, 0x3e3637cc3e53ec1eU,
  0x3ece7aed3e23b9acU, 0x3e13c22fbc2467cfU, 0xbe4337acbb24c4a9U, 0x3e8b5fed3e850fa9U,
  0x3e3e0e143e068037U, 0x3da5795e3e1a214eU, 0x3d2a09123e69df41U, 0x3e791bcf3ee280d7U,
  0x3ed2094ebd1050d3U, 0xbcea24eabc713c32U, 0xbb922bdf3e0829b9U, 0x3e22f0573ed56803U,
  0x3e23d22dbe1eca17U, 0xbd3448cbbcd2310cU, 0x3dd39e343e3ecf3aU, 0xbd9d33c73d46c0bdU,
  0x3e7e575cbda5eb9bU, 0x3d8e6a253ccc1ffbU, 0x3d3aae963e0e4c20U, 0xbdbfa1833db42ba6U,
  0x3de1d4f0be8adb0dU, 0xbda850a53d34a8d8U, 0xbca7bec23d8b363bU, 0xbe2bc76d3de002c9U,
  0x3cb62303beb2d04dU, 0xbda04a0ebba35c03U, 0x3cff483e3e3b8c36U, 0xbde740673d5b594aU,
  0x3e2f8204bd21c135U, 0x3cc2873bbe172e4bU, 0x3e38e4213dff5ef1U, 0xbe3bf65a3e48beaeU,
  0x3e2b0771be72bd67U, 0x3da42ba93ca19256U, 0x3e896efa3dd3f3a6U, 0x3d4259853dafb38fU,
  0x3e400d2bbe95ebb2U, 0x3cf47849bdbd4e6eU, 0x3e5427a0bd05f225U, 0xbe3432cb3d165861U,
  0x3e26d3c9be77e354U, 0xbdbf0adbbdc40a5eU, 0x3e21ded63de59e1dU, 0xbca80e563e369e40U,
  0x3b219095bd8853d3U, 0xbd88ace13da597abU, 0x3d8e1e453e10abc0U, 0xbe1812fe3e4781d0U,
  0x3e84cb2dbdb13175U, 0xbc70f4f8bc957a74U, 0x3bdedcc73deeafa3U, 0xbd5f512f3db774caU,
  0x3dce0b48bddd75d3U, 0xbdb753d1bc7eb2c9U, 0x3b89a7073d4d20e7U, 0x3d0951383de10f86U,
  0x3b998ed4be94f79eU, 0x3e306bba3d375223U, 0x3d9900833e73782aU, 0x3d3160eabcfe6aefU,
  0x3c7ae1eebdff0fa8U, 0x3c3e88d53d331264U, 0x3e1f95903e027b29U, 0xbdf43c483cb414dbU,
  0x3d0e3658be75b0c3U, 0xbc8701cf3cb38c3cU, 0x3c0b98fe3e2542a0U, 0xbd4ccff3bbe52022U,
  0x3e0e1d6f3c8c923bU, 0x3dbd195dbd3c544fU, 0x3e4b41c6bc2f4da2U, 0xbce2f1463dc2ba52U,
  0x3e730afbbe914275U, 0xbdb62f733d8c9089U, 0x3be4aaa03d88f763U, 0xbafa1eca3d0e533eU,
  0x3d0bdf05be662df7U, 0xbcfaef19be0ae63dU, 0xbc2fc00b3dd6bce0U, 0xbd1e8ef93dd672cdU,
  0x3e798b78be847e41U, 0x3d8aa4d0bdbb7262U, 0xbd7c24d23ccfaf79U, 0x3c38eb573e0efa92U,
  0xbc790604be55dbd9U, 0xbe042a76bda1d241U, 0xbcf2516abe0e7106U, 0xbc66aeb33e0ad083U,
  0x3e8380f2be077f61U, 0x3e04dfc9bdabc1caU, 0xbdceb0aabcab37bdU, 0x3de24b4d3e305eb9U,
  0xbd4f4be6bca3986dU, 0x3e0448c63c59646aU, 0x3e441089bd7aabbbU, 0x3d3b12e53e3d141dU,
  0x3e98df46beac355eU, 0x3ddcc0333d3a47a7U, 0x3db31c033e003849U, 0x3c8253f23b12b7b3U,
  0x3f06dc2cbc343702U, 0xbdaa9a233e5457e7U, 0xbce3c3783ce30948U, 0x3ce90a1e3efc03b2U,
  0x3e6dd1533cab2b30U, 0xbde4a07a3db87c2bU, 0xbdea0b43bcf3de31U, 0x3e95128a3ee3df71U,
  0x3e10ebefbd010002U, 0xbd9d72d3bdc6b254U, 0xbdf84e043c881d0fU, 0x3e32f9f33dbc5555U,
  0x3e0b8739bda17a7bU, 0xbd405e273e0e3c7dU, 0x3caf3563be1dbb23U, 0x3d2ff6203da8c28fU,
  0x3e14c6f53e0561c7U, 0xbda72f203db7c0a3U, 0xbe801f17bdbb86bdU, 0x3e221b9a3dba7bb5U,
  0x3e9fe6dcbdd3d46cU, 0x3d4ba1f83cfebbf5U, 0xbe084e9e3c36000dU, 0xbb27df603ed51dc2U,
  0x3e6b18df3ca4aabfU, 0xbd6b14b2bbf882afU, 0x3c34364f3caf27caU, 0x3db52c263f096818U,
  0x3eb93f2d3dc80288U, 0xbd996d8fbd2e02f1U, 0xbdd4a09b3cddc52aU, 0x3e9fd2cc3ec9b5f4U,
  0x3e99351bbc6443eaU, 0x3d90cbf43bcc8442U, 0xbe32c8913e1352b2U, 0x3e6b59b63ec5432fU,
  0x3eb33962bd2cc96eU, 0x3e3c58863e0e2d3aU, 0xbe1936ef3bc29a9dU, 0x3d3d4d123eaf90c2U,
  0x3ec39dfe3ddcd5c2U, 0x3b545c2c3dc30a1cU, 0xbe9663a5bc1a3ed5U, 0x3d390ee13ef936a9U,
  0x3eaf63253d19eb29U, 0x3d2dcd8d3d961228U, 0xbe9cf8f63d6ce0fcU, 0x3d82df0f3ebe31e2U,
  0x3dffa447bd7d7c09U, 0xbe04e705bcc6a68cU, 0xbc82d87c3e019132U, 0x3c8ce55b3f00e204U,
  0x3e82a8d0be09da5eU, 0xbc3a9521bc5c5cefU, 0xbe58d2703ccfa171U, 0x3c0a8be63e861064U,
  0x3e819862bda2e5adU, 0x3ce354f7bdc43386U, 0xbd9d563fbd6b4ad6U, 0x3e01f9123eb73a77U,
  0x3ec077cd3cc6ea48U, 0xbe05d4913dda25eeU, 0xbe3160413dfc9699U, 0xbd1cc8353ec33944U,
  0x3e4e84be3cae9a89U, 0xbdb647483db7a7e3U, 0xbdcd01d13ddc2bfdU, 0x3e5b8ac13e168183U,
  0x3e7f59253ae3193bU, 0x3dbf4b123d31e465U, 0xbe1c6154bdb94cf1U, 0x3d3329aa3e0fb0dbU,
  0x3ebec7233dde8ffaU, 0xbd117f4ebdd0e83aU, 0xbe5a5cf9bb2bb217U, 0x3e0a955a3ec71955U,
  0x3ea977063dbb690cU, 0xbc3ff27d3e005e74U, 0xbea2f2ca3e192e05U, 0x3e67b2fa3e5f49bcU,
  0x3e78a78c3e14c24aU, 0x3e15750bbe062f65U, 0xbe8f139cbda71834U, 0x3d933c1c3e9f9108U,
  0x3f24ce3d3d94f0a1U, 0x3e065d7ebe14120dU, 0xbdcc7a343d7d4cdfU, 0x3dc99cc03f11bc2eU,
  0xbf537bc23c2bf9ffU, 0xbd6852ed3e2d2d43U, 0x3dac66c5bd61580bU, 0x3d1057e1bf79b5feU,
  0xbf4ad743bd9ca353U, 0xbe3404f63e26f6e5U, 0x3e49573e3c7dea83U, 0xbccac7dfbf7b8bc3U,
  0xbf57586a3d25e6bfU, 0xbdcdce843de56fccU, 0x3e97ee00bc26890cU, 0x3dd8fc5bbf49f02fU,
  0xbf35990abc61c0d4U, 0xbd1d0be13e40080eU, 0x3cbf60f23c2751beU, 0x3d809b5bbf5aa873U,
  0xbf47aacd3c25b6feU, 0xbdbe4a09bc39be9fU, 0x3e16b4d4bdc45e26U, 0x3d05882bbf3113d8U,
  0xbf583c053cafe33aU, 0xbc5241383d15fc8fU, 0xbd803a04bd9a08bbU, 0xbb6941c5bf132616U,
  0xbf2fdb113db36313U, 0xbda217f4bcdf40d6U, 0x3e0f557dbcb872dcU, 0xbc4afb63bf541af4U,
  0xbf6777c93d12a97dU, 0xbe298a973d902d6aU, 0x3e262188be0dd202U, 0x3d2ec5c4bf45b0f9U,
  0xbf5cf98d3e0c80eaU, 0x3bf43771bd2760c3U, 0x3c290617be01cd4aU, 0x3ce13d35bf44dcd4U,
  0xbf84ca383e0d2942U, 0xbd66644d3e3d9191U, 0x3e06def7bd2742a6U, 0xbd923c22bf6c87fcU,
  0xbf776e963e06fb4cU, 0x3beb59853cf70944U, 0x3d340e6bbc91f376U, 0xbc9762e1bf7dd6bbU,
  0xbf845dbb3df3e636U, 0xbdb81c483d02c6afU, 0x3e2af5dbbdc2793eU, 0x3e044658bf81bed5U,
  0xbf3ca6403cdf691cU, 0xbdd3d5b33e327e01U, 0x3e148eb0bd4c0db1U, 0xbd21ace2bf8eb755U,
  0xbf4e0c24bd91c6eeU, 0xbc365d113d9796bcU, 0x3c972b233d95c1bcU, 0xbdaf1ed9bf7621ceU,
  0xbf1cd671bd71e8e2U, 0x3d84f6313be3beccU, 0x3e0b7bf1bda68cd0U, 0xbd200841bf4738bfU,
  0xbf2f1e4dbc95e0b7U, 0xbe0594a2bc4f0a34U, 0xbd8a8c76bd95f789U, 0x3dfe3a23bf3ec7f7U,
  0xbf273f0f3df73dc5U, 0x3cefa32d3c69235eU, 0xbcc25a3fbb8bd9dcU, 0xbc429bb3bf40c7e6U,
  0xbf4b7ecdbb4b195eU, 0x3c2933123c0a719dU, 0x3e8ccd1f3d04df3aU, 0x3df2a5b7bf5e39f2U,
  0xbf47aaea3e13a579U, 0x3d25ba983a32e02eU, 0x3e90db643cef65abU, 0xbaa8b375bf2e8986U,
  0xbf5b37cf3dac0d1eU, 0xbe8117083dfe7e1aU, 0x3e302c323dd6ed58U, 0x3e06eea4bf4488caU,
  0xbf82e8a13d05bfe6U, 0xbdf19e3c3e0ef3d7U, 0x3e5e9e97bdbc0cf1U, 0x3e4204d4bf6f2007U,
  0xbf9e45ed3d9bbd96U, 0xbdb3567d3e170420U, 0xbd04afafbd81a866U, 0x3e3d616bbf90db0eU,
  0xbe49a36c3eae56aaU, 0xbd18588bbd40c227U, 0xbd2423c13db9f91fU, 0x3e53df4dbd01de91U,
  0xbd3aaa1e3e8fbe74U, 0xbc3ac8843ccaff90U, 0x3e480826bd1aea2cU, 0x3e9121b3be481790U,
  0xbc09bdbe3dec6aceU, 0xbe52a0dc3e7e4330U, 0x3e4c00d33d2f051dU, 0x3e0ad1f2bd2ce682U,
  0xbdcfb2c03e0642bcU, 0x3d12b70abc90e547U, 0x3d9bea87bc96e13cU, 0x3e0cf088be4d12edU,
  0xbde3b0ec3e4ce27bU, 0xbe4d63e63c231252U, 0x3e0fc5143d33f4bcU, 0x3e92d2bbbdb5cb07U,
  0xbe418ed63e0e4ce7U, 0x3de7e6193dbda3dfU, 0x3df5720c3dacd763U, 0x3db5ecb3bd806818U,
  0xbe6d1d353e5ff017U, 0x3dd39d1d3e407022U, 0x3d0573563df8d2bbU, 0x3dbc8b3abe470415U,
  0xbc12158e3dc473eeU, 0xbe21cec63e2601acU, 0x3da768bd3df07c0fU, 0x3e075747be91f6b7U,
  0xbe87af523dbd2997U, 0xbdd370803d1cd58bU, 0xbd5c11f63e14b70cU, 0x3e126c653c9248fdU,
  0x3ccbb0fd3e3d303fU, 0x3c85a2583dda4661U, 0x3dcc2cc2bd866e51U, 0x3de1db65be10a787U,
  0xbd5f74f83e6d1234U, 0xbdc67b9f3e07898bU, 0x3e786f3a3deb1731U, 0x3e266663be0f7744U,
  0x3cf2dfb33df5511aU, 0xbb8e5b463df2751eU, 0x3d876a3b3c3b2d70U, 0x3e30da20be3d0a77U,
  0xbe14ae743e85a347U, 0xbd15b7203e47584bU, 0x3e39953a3dee6f03U, 0x3e6c21aabda0419dU,
  0xbe0f85dd3e979dc2U, 0x3d3438253b3661f5U, 0xbbe15e253e497224U, 0x3e6ba2ad3b4895ddU,
  0xbce0eaa53e99451fU, 0x3ca79d0b3d21f64bU, 0x3e745eac3da0041fU, 0x3dccda2ebd02a4e6U,
  0xbdfc28463deae773U, 0xbe46fcd1bce779a4U, 0x3d90095f3e35f9b7U, 0x3e58a199bdc448cdU,
  0xbd994ef83e72dbd4U, 0x3ddd61003e75f22cU, 0xbce85d583d57337aU, 0x3e83e9953dc509b6U,
  0x3dd546e23d065161U, 0xbc9fd29a3e484280U, 0x3e1df3dc3d585d6cU, 0x3e04e62abce59993U,
  0xbd612b1d3e65015dU, 0x3da883523d1d6624U, 0xbcfe2dea3da7b604U, 0x3e9b008ebe045d51U,
  0xbd85dfa13e0bfcd2U, 0xbd204a4a3dbeddc5U, 0x3e2c8b3a3dfa2821U, 0x3dcb5032bdd32e75U,
  0xbdf6e5793e8acf8fU, 0xbe3ecf433e34b9fdU, 0x3e3b80153e13d668U, 0x3e651901be11ea7aU,
  0xbe19097d3ea96fefU, 0xbe1f30793ced41b6U, 0x3e3a3b783d86e83aU, 0x3d165631be1ed950U,
  0x3e51569cbd83e4a1U, 0x3b5d90ba3c48020bU, 0xbd27ca303e292ce5U, 0x3e3e41783e7a2972U,
  0x3e9061cfbbd52522U, 0xbd7445ba3e0f64aeU, 0xbce71f973d13e3efU, 0x3e7758213e89991cU,
  0x3e0debfebdad826eU, 0xbe0560ccbd0af397U, 0xbd4b889ebd9ac2f8U, 0x3d4e62393e8bf427U,
  0x3db5e3b63d4bb610U, 0xbd6f280e3e16f268U, 0xbe10118c3e259359U, 0x3e23e4653e527e45U,
  0x3e04df5dbd54488eU, 0xbab426d5bcd51d38U, 0x3ddbadd53d729c5dU, 0x3cf7217c3e621c56U,
  0x3eaa4571bd4cf927U, 0xbdd36a083cf14461U, 0xbe133edfbc1dde6fU, 0x3e8c0b293eb67ee1U,
  0x3e9960683db382ddU, 0xbd42fd07bd8acb7fU, 0xbe38bbffbc516759U, 0x3dc406a93e71fed8U,
  0x3e965e4f3d75a2eaU, 0x3d1219c0bca3da3cU, 0x3d123caf3df80ea7U, 0x3d96f0303e99b58dU,
  0x3eab0df23c1eb988U, 0xbc920f203d460a63U, 0xbcf476af3e309e38U, 0x3d34322b3e7ee1cfU,
  0x3e43c5eb3e1aebdeU, 0x3daae6f93e1ada53U, 0x3d17cacfba85e5d3U, 0x3d9b369d3e95468aU,
  0x3e3f41533e0660f2U, 0xbe1aebea3d4c952aU, 0xbdf878ebbda262e3U, 0x3e5145093e5fa045U,
  0x3ea02bb5bd6570b2U, 0x3e24fe823e63666fU, 0x3d184b433de19a91U, 0x3e2f62d33de32bdeU,
  0x3e6058463e1473d2U, 0xbe16e3cc3dbe8d56U, 0xbc15820f3df2c944U, 0x3e0d60923ebcd25fU,
  0x3d469bc53c767642U, 0x3c90f65abd80a1f9U, 0xbdea7b7b3d12abb0U, 0x3e155b213ea6ac9eU,
  0x3ea734103c9911adU, 0xbdda77fa3da54a69U, 0xbde7885cbd2fa5bfU, 0xbc64d9a93d817ccdU,
  0x3e83baf63e0d3ca3U, 0xbcb96b1b3d3e5069U, 0x3dfcd2f93e45e98fU, 0xbb90ef303e94f50cU,
  0x3e019bb83835b044U, 0x3caeb22f3e3dbfe8U, 0x3e0e94043da1716bU, 0x3e5e0eaf3e9973f9U,
  0x3d11f356bc1f12baU, 0x3d6f0ea4bd49aa11U, 0x3c40fb0bbd5c391cU, 0x3d9ed5733e79c94eU,
  0x3e28a4b3bc30ab6fU, 0xbe2a6cb73e110734U, 0x3d3fd1f13e1fa59cU, 0x3e4c6c513e5bcc71U,
  0x3ebb6c733d222d56U, 0x3c7f2b2bbd456cc9U, 0xbe6d41e03dd06d80U, 0x3e267be33eb7e866U,
  0x3eb7ca8bbd73604bU, 0x3d9666e23e2f8e6bU, 0xbe5ec1493e3659a8U, 0x3e8388c63eadece6U,
  0x3ea3c474bc641e15U, 0x3d1fa2adbd893381U, 0xbdb2e0113e6c802aU, 0x3ec4a4a73e801ffaU,
  0x3e5d15f2be19f93aU, 0x3bf91c843e04a0c3U, 0x3d91ef403dd0c2f0U, 0x3c8981773df55d2aU,
  0x3ccfd0edbddf2098U, 0xbda5de6ebd8de1d0U, 0xbd08bafebd738a67U, 0xbcba4ed13e45bc22U,
  0x3e190463be561cd4U, 0xbbd83676bd39ee77U, 0x3dbd8a1dbc818177U, 0x3e0c8b13bcbbe3bdU,
  0xbdeaea5abcb7ebddU, 0xbd749014be42c0b7U, 0xbd8cd44d3b2223e9U, 0xbd7e6cdcbcbb8f5fU,
  0x3d7372c9be72501cU, 0xbdd2d8b2bd81cae2U, 0xbd5d4732bcac1f41U, 0x3e3f938ebd41bc31U,
  0x3b9819fdbc8f549aU, 0xbd4f056a3d44ce98U, 0x3decebb83c2f76f1U, 0x3dd992b93e994b02U,
  0x3e0d65b2be2638f5U, 0xbd40f4acbe4b64baU, 0xbdbe93b8bd321038U, 0xbdfb0a8f3c0f6e75U,
  0x3df263673d125880U, 0x3dc9998abd370149U, 0xbe1aced13e159a39U, 0x3da689823de94a94U,
  0x3ea0c882be1ab32eU, 0xbe4f978d3e17dbe4U, 0x3dc068673d5d258bU, 0xbd7977913e08c387U,
  0x3d50988abd266452U, 0xbe22d669bd212e42U, 0x3d8dd60bbdc0cc7fU, 0xbcc04c803e819972U,
  0x3e1f08bdbde5b3aaU, 0xbdff9640bd170e90U, 0xbd07a709bd4bf7cdU, 0x3d6aaf263ea330d2U,
  0x3e2d239bbe2efe3fU, 0xbc6311e0bce5a51fU, 0xbcb5426f3d3ab8abU, 0x3e171eabbd7fe0e0U,
  0xbdb91b1cbe18db13U, 0xbe13ae77be2ebf5bU, 0xbd34b49abd95095fU, 0x3db37b3f3e7f77e9U,
  0x3dac56b7bd9a26ddU, 0x3d87661dbdf6ec62U, 0xbd509a8a3c9c93b3U, 0xbc1bd66d3e92ae25U,
  0xbcf03da3bd33508bU, 0xbd31defbbdba2226U, 0x3d998dd7bd663018U, 0x3dd7f3a33e819f1eU,
  0x3e18c8cfbe3962a7U, 0x3dbf64c4bd5d5f6fU, 0xbdca259b3dd5889cU, 0xbcbd9d5a3e629134U,
  0xbcf2f692bda6ce17U, 0xbdd4b2473d048a51U, 0x3c620ee63e1191e9U, 0x3dfa61353dd529b8U,
  0x3e21b86ebe5f2611U, 0x3da696fabd911dc2U, 0x3d06ab79bda1f8e1U, 0xbcb18688bc770e92U,
  0x3e3ba50bbcdd38cdU, 0x3d8643bebe048a4aU, 0xbe197e903da7e6afU, 0xbd8c8d663d62c5c4U,
  0x3e886533be1046c1U, 0xbdf74aa63dc134e0U, 0xbd8cdcfd3cd9b90dU, 0xbdcd29d33e05e933U,
  0x3e1d7a7f3bbd1ac6U, 0xbd92a264be27d328U, 0x3dc856c7bd1248bcU, 0xbd9d1c933e5684eaU,
  0x3e083b03be33f4c9U, 0xbd461982be46d310U, 0xbd97aea03c7215d6U, 0x3d8344dc3e219ff6U,
  0x3da1eb0cbe4ba1d1U, 0x3d245b463dd6c14eU, 0x3e1114ce3e0ee74cU, 0xbb5867a73d1d4223U,
  0x3db3278dbd3f6689U, 0xbd981b093c8a3db7U, 0x3d6eb309b8cd8492U, 0x3d7c48db3badf702U,
  0x3d224d7fbd9e5c43U, 0x3d618e2ab9804dfaU, 0xbe0d4cce3e4da814U, 0x3e19e8023e1aae87U,
  0xbc61d1f6bd8ddd97U, 0x3d582c66be1220a9U, 0x3c6aa321bd8c7c88U, 0x3dfd93313e7afa4bU,
  0x3e2c4f14be8773faU, 0xbc00334e3c8e021aU, 0x3e01e78b3e1e83c2U, 0x3e23da163e132519U,
  0x3da4cf36be93eabbU, 0xbd25451fbe490e65U, 0xbcdf67653db4cb3eU, 0x3e009acb3e007b3fU,
  0x3e1032adbe9d71e2U, 0x3dd0bba5be3a9e67U, 0xbdbe06353d8e8fb0U, 0x3df7cff13e06c33cU,
  0x3d69eeddbe5ab5abU, 0x3d0b2a9ebdd53d5cU, 0xbde43f93bc3cdb45U, 0xbc5f0cc33e708993U,
  0x3e456006be9587d7U, 0xbb83cff53cce3186U, 0x3d0a7f083ddffe8eU, 0x3d2953153d9e2e11U,
  0x3e126a8cbe8f8c92U, 0x3cd0df10be539662U, 0x3db5089c3e19682bU, 0xbc073c8b3e76e955U,
  0x3dafd9a0be6687d7U, 0x3dceb9223d17df14U, 0x3df182ff3e57ce55U, 0x3e2763873e11a723U,
  0x3e6e1615be1ea6c0U, 0x3d7003ed3c8ff1d3U, 0x3dcd21083e78179bU, 0x3d855fa2bc3f7873U,
  0x3d93de00be7d4664U, 0xbe0dc9dfbd1fec71U, 0x3d6f256bbd9bb2deU, 0x3e2b57563e81bf98U,
  0x3d6ba3a5be8e5907U, 0x3bb9b45bbe365596U, 0x3de754ca3cf1414cU, 0x3e2c4a72bce3c7c6U,
  0x3e05be51bd481924U, 0x3d862e29bd20de9fU, 0x3da359ddbc60aa48U, 0x3d19f5653dbb3333U,
  0x3e305e8bbe54e322U, 0xbddd9c7dbc42717eU, 0xbd5a1c46bc0bcf44U, 0x3c177fad3e331eddU,
  0x3c777fbfbeb8523eU, 0xbe37c2a43cf88a73U, 0x3e01e27b3dafa7a9U, 0xbd2263ee3e40205cU,
  0x3d9bfe8fbe8c9a69U, 0x3d2d8c8abe053ea4U, 0xbddf69b03ca92bddU, 0x3dd713413d11268aU,
  0x3de2dc71bdfbe4e2U, 0xbe486664bc84bc8dU, 0xbdc334663d1fe202U, 0x3d09326c3d6ae8b3U,
  0x3d79f842be8d7d63U, 0xbdfa9875bd2bfdbfU, 0x3d90b7c43e0b372bU, 0x3c97622f3e4de6c7U,
  0x3deaea81bebf8ef7U, 0xbe14e173bcb89f68U, 0x3df2241d3e016911U, 0xbd1dea613e691a9aU,
  0x3e100240be47b316U, 0x3e1f3dfbbc60ac50U, 0x3dd2536cbbb50043U, 0x3df4d8953daff8ffU,
  0xbd31a195bd850825U, 0xbcbd62a73d38a156U, 0xbc85b8d13e0fcb11U, 0x3e3a8d8cbd3409aaU,
  0xb78093d0bd71b117U, 0xbe4fa73a3e809af3U, 0x3c6885403e558fc1U, 0x3db78c87bdfec319U,
  0xbd0ad06c3d656d57U, 0xbcc31f163e27043fU, 0xbe3ebcf13cef3b66U, 0x3e91405cbdac8804U,
  0xbd190d46bd52655fU, 0xbe08d9733e14468fU, 0xbe7200d23d7ea2d7U, 0x3e9686773ab8f889U,
  0x3de578673b84f901U, 0xbdaf5c803e61733eU, 0xbc944357bc19e06fU, 0x3e8861773dd76dd7U,
  0xbdc033f03dc6b94dU, 0xbcb336b33e80c9dfU, 0xbde1624a3d9fa6b2U, 0x3e20b8fabdf636acU,
  0xbcfb2ae03c64a633U, 0xbe29cdd23e249341U, 0xbe892856bdeb2127U, 0x3df6877bbc5f974fU,
  0x3cd1d8743e16b39aU, 0xbe2135ae3e07fd1fU, 0xbcaf198abd035df1U, 0x3d969926bc87639eU,
  0xbe0f7f9dbc9a45ceU, 0x3d13f15d3e39ffedU, 0xbe4d08c73dca737aU, 0x3dc4a4efbc02fbb8U,
  0xbdb666c23e6bb9e6U, 0x3d161462bab34065U, 0xbe16aa7e3e2543f5U, 0x3e2fff58bd9067e6U,
  0x3ddffb1e3e5f344eU, 0xbd5d66fc3e86f4aeU, 0xbe170df43dae35ffU, 0x3e642851be32fe53U,
  0xbd339f433d9c0f4bU, 0xbd3e3a543e99935bU, 0xbe5db8c2bdb2716fU, 0x3d838988bd8b2369U,
  0xbd85ca543de6fcd5U, 0xbd5c6ed23e1cfef4U, 0xbe12c2433dceea06U, 0x3e7f1316bd05ad03U,
  0xbdd9c1bf3e2d6afcU, 0xbe31396a3d544e4bU, 0xbd1acc34bcf35a68U, 0x3e811804be17231cU,
  0xbddefc3b3cf25cc0U, 0x3ccf41b53dfe37e0U, 0x3d38b1b9bcfe930dU, 0x3df44d0c3c0bacafU,
  0x3d193d293db9f3e4U, 0x3d8847423dd89f2eU, 0x3c6651843d89047dU, 0x3e446307bd67365fU,
  0xbb8a8b063db05c1dU, 0xbd963afc3e0bbd95U, 0xbba1a989bd890a2dU, 0x3c23268ebc93c098U,
  0x3d4cf9f63dd23918U, 0x3daebbe23e2f7693U, 0x3ad8fb623e1c1523U, 0x3e2a0bb1bd7dfee2U,
  0x3d4e1f873e35b125U, 0x3d69aaa83d599fa4U, 0xbb7e3f4bbcf9ff97U, 0x3c76b0833d737c69U,
  0x3da2a8753b0efdfdU, 0xbdcec6e13e16d7f5U, 0xbd0d9c403d911e3bU, 0x3e59533d3daa4c39U,
  0x3e34b33f3e06343eU, 0xbd97d7a73eb3459fU, 0x3cde3d113e000a18U, 0x3e92ae20bdb3794aU,
  0x3d95f8c13de5fceeU, 0xbcea13923dd9fa66U, 0xbe163d0d3e74d0b0U, 0x3e4c09b0bdc20cd9U,
  0xbdd6b7a43d6df95fU, 0xbde669bcbc331d85U, 0xbc4cb73cbd7efe5fU, 0x3ea40bc4be871a1fU,
  0x3c30e8e23e47d377U, 0xbe6d209e3e645270U, 0xbda5d669bb93f282U, 0x3e4df006bdf5afb2U,
  0xbc0d9e613e3a3af5U, 0xbea081d73e0000d6U, 0xbe151a0b3e29b7deU, 0x3dbaa4cd3bbc7b0aU,
  0xbd5315883eaa843eU, 0x3d1557cbbcd53aa7U, 0xbdf31573bd839674U, 0x3eb7160ebe0d012bU,
  0x3d68f7783e58ed4aU, 0xbe3b83683e8a7194U, 0xbe15df5a3d81bd92U, 0x3e48ed8a3c97cfbeU,
  0xbd2db5343db72b07U, 0xbd170db43e199bf6U, 0xbe53d0c9bcbd55faU, 0x3ea6717cbd05e1b2U,
  0xbd9c41bd3d5839a3U, 0x3d83b7683e2f63ecU, 0xbdea8bd4bd73feafU, 0x3e8db92dbe07cb84U,
  0xbe2bec483e5c4b3dU, 0xbe1ca29e3e4e4bd0U, 0xbe317765bd6b6117U, 0x3e9c422dbe5cce3cU,
  0xbcb770863e8b8c56U, 0xbe8729b63e2dc8f0U, 0x3ab1be843e51866cU, 0x3e86cd9ebdd2fa71U,
  0x3d2eab2b3e8c73acU, 0xbd8b67083e05864eU, 0xbd4e6fb93da88cfaU, 0x3ead23ddbd1735d3U,
  0xbdbdb35c3db5a2e4U, 0xbd7216263d4bbefaU, 0x3dc4e7aabd61782eU, 0x3e32fea6be60edc6U,
  0xbdafc7c43ea00baaU, 0xbe3dbd92bcabcbfdU, 0x3c481ef53c2f5354U, 0x3e7acfd03ca4be05U,
  0x3d0cc75e3e4a1e64U, 0xbe4a3a9a3e5fde4bU, 0x3d67cd473e3106dcU, 0x3e78ac0fbc66c374U,
  0xbe3bb25c3e8db6dbU, 0xba792fee3e9c0217U, 0xbddc10513d89ee55U, 0x3dece961be24e5f7U,
  0xbe3f0b7c3e66bdc8U, 0x3d22af6d3e225d0dU, 0xbe02ab813e39221aU, 0x3e22a7c1bdacd52bU,
  0x3dc9703a3e994cecU, 0x3d0d33c43d08ec02U, 0xbdb167d73c9a92baU, 0x3db32349bce8c68fU,
  0xbc6de96d3db02213U, 0x3cdc6a59bc35485aU, 0xbe12b7d23d3a7d0bU, 0x3eae89c33c909174U,
  0xbc8956ba3e3dfc34U, 0xbe87aa033d7b78e7U, 0x3d09ebc6bd4881bdU, 0x3dcdbb953d46e3beU,
  0x3df75ca03db6c4fcU, 0xbe07394c3e84e533U, 0xbd5b5cd73c9b0d3bU, 0x3d7e8216bd9fdd0dU,
  0xbe4f1e033e04f6e0U, 0xbe8ecbe73e1cea1fU, 0xbe458b04bd9044ebU, 0x3e038b723d953742U,
  0xbdea3ee63e841866U, 0xbe0bc2fd3e310b33U, 0xbe29b3f93e140382U, 0x3d4d38e8be5b5222U,
  0xbe6b92b33e4c7a8bU, 0xbe811ee43dc8cfc6U, 0x3d5c30493e521301U, 0x3e9fe9d4bd6fbdfaU,
  0x3ebb9c34bdb30cf1U, 0x3d6760ab3dbef763U, 0xbe10dffcbd2dc8c7U, 0x3da6a4223ecd370fU,
  0x3e32488c3dcb2f38U, 0x3debd3ed3e1374cbU, 0xbe487b3eb99083f4U, 0xbd1f50663e91d434U,
  0x3e71bc943ca83103U, 0xbd8ca4f13db17e2aU, 0xbe3850713e2061ffU, 0x3d0375d03ebfe64cU,
  0x3e2939793d7ebed8U, 0xbd1619753d87bc25U, 0xbda37e553df2cbacU, 0xbcf492a83e1c8a1eU,
  0x3e9217943d1d7d29U, 0x3d7428cdbcff0f48U, 0xbdd681913e1e1f0fU, 0xbd321d543eaaca4cU,
  0x3e3fafae3d3bf683U, 0x3e0d38183e0e9a8aU, 0xbdcaac203d36e050U, 0xbda3b4f83f01464bU,
  0x3ec5ca843da339aeU, 0x3e1f299dbd0a1e65U, 0xbe0bd115bcb4ee8fU, 0x3e0a6a3f3eaf186bU,
  0x3ed2f802bd1d3dc0U, 0x3e19b75a3e2547a8U, 0xbe361087bdef8e49U, 0x3e23ebab3ea16307U,
  0x3ea8c75cbcf04857U, 0x3df9d57c3d9d3e21U, 0xbd2f64883e161427U, 0x3d8c96993ec315aeU,
  0x3ec96fd53df998e6U, 0x3ded518f3e02a3f5U, 0xbe09251bbd22faf2U, 0xbadc8c0a3f165df9U,
  0x3f005cc13dbe4646U, 0xbcffe5dcbd953291U, 0xbdc7af023e048f42U, 0x3cddb5d93f1239f9U,
  0x3e0a972abd17a1cdU, 0x3b922615bdfd4325U, 0xbe8244493c139235U, 0x3e3d6baf3efaaf47U,
  0x3dbd48773e0a510bU, 0x3dadfd2e3e4a7fe5U, 0xbe90fafd3e20a544U, 0x3e4516d13e9c7675U,
  0x3eb44a8e3d92a0ddU, 0x3c5c6f653d2f82d1U, 0xbe226135bd5fbe38U, 0x3e3deed13e89cfb7U,
  0x3dde78e23dac29d9U, 0xbd83b3aa3d707b93U, 0xbe9664353d6ce149U, 0x3d7212ee3ecd39e7U,
  0x3e7e1da53d88fe74U, 0x3e1d711b3dfcb70aU, 0xbe4211413ce0c569U, 0x3df5e7f33f02fde3U,
  0x3e29ab3b3d9676f9U, 0x3d2c87ffbcb08c2fU, 0x3d15878c3d8cd62cU, 0x3dedc0283eee0b87U,
  0x3e39deecbc951867U, 0x3d6759a6bb53e980U, 0xbd652f213e0c52f0U, 0x3cabaec93ef6a469U,
  0x3e9372e93c666216U, 0x3cee2eba3e33c802U, 0xbdcacd913dfd84b0U, 0x3e7179383ed94318U,
  0x3e959256bcf2c5f1U, 0x3dbef0403e34543eU, 0xbea5e3683e22022fU, 0xbd2570d63ec73c54U,
  0x3eb5f87bbd203ffeU, 0x3e2c28d4bd8d45b2U, 0xbe129af83dd494ccU, 0x3d9dd9993ef808caU,
  0x3edf75ba3d314eb8U, 0x3dc03f093dcaf06fU, 0xbe3feb7d3d02287eU, 0x3d635e3c3ed4e968U,
  0xbe87d3623c074cb2U, 0xbdc039223e93dd98U, 0xbe333cdebca9c8adU, 0x3f0811bebebe4ea9U,
  0xbe96a028bc5560b4U, 0xbe5915f53eaa6cacU, 0x3db756a33d6a03cbU, 0x3ef25234beb803e0U,
  0xbdefbfc43e3bacb7U, 0x3c7d8f5c3e807cabU, 0x3c9fd29d3d70f33dU, 0x3e708c37bebf5fe0U,
  0x3d6c57b03e1505c9U, 0xbd3eebcf3eab700bU, 0x3d3c850c3c9ec000U, 0x3e6f7075be1b2f9fU,
  0xbe3c23e63e44ba0eU, 0xbe1214553e4df447U, 0xbd271e623e5bd724U, 0x3ee99ec6be4b5990U,
  0xbe7243e13d6e887aU, 0x3db3da563e22768dU, 0xbda6a8af3d2b0163U, 0x3ea424b6beb99d00U,
  0xbe3ca7643dcbebf4U, 0xbd734ef93da8906cU, 0x3e0f2fdfbdc67a7fU, 0x3ece2c3cbea3703cU,
  0xbd190ef5bd13aa59U, 0x3db621093e040011U, 0x3deebca33e7174e7U, 0x3ec877a5be1b56d9U,
  0xbd9d84113df38c31U, 0x3caee34b3eb1ccc6U, 0xbdc069113d56e4baU, 0x3e96d961beb69296U,
  0xbe1fe61a3cc8a2a9U, 0x3d2589673ea82631U, 0xbddd97713e49e59cU, 0x3e674fd0bedafefbU,
  0xbe40326a3e62b954U, 0xbcacc6a43e89c50aU, 0x3e11f87b3e3715e4U, 0x3ed86287bee4e8a4U,
  0x3caeb3f63d8aefc8U, 0xbe167c813e9cc7e9U, 0x3de7347c3e31d98dU, 0x3e9c5c1fbecbe1a9U,
  0xbe2f79c23ddf0991U, 0xbe3c81e93ec86eafU, 0x3da1bbab3dd49c7eU, 0x3e8c32a0beb3eec7U,
  0xbe17a70ebd01913bU, 0xbdb6c1583e53cc75U, 0xbdc1a0493c18f14dU, 0x3eeb2624beb45903U,
  0xbe54289f3d29a771U, 0xbe5a34de3e7ba8c6U, 0xbddaa5333cd9cfd4U, 0x3eae4902bec78d01U,
  0x3c92dde93e19a7a2U, 0xbd3ab6f93e692e52U, 0xbe13fb2c3d8a4253U, 0x3e5a29b0be549c59U,
  0x3d051b1f3d376114U, 0xbe33f4403e8dc45fU, 0x3d8b99e03e063f24U, 0x3e54e5babdd0d896U,
  0x3dd8a3c23e0cf125U, 0xbd455c793e899460U, 0x3d7091323df566d8U, 0x3e8446ecbe181177U,
  0xbc0974ea3dc69460U, 0xbb34adf83e9cb079U, 0xba16d7d63d2dca46U, 0x3f034619be8811f5U,
  0xbdc1224abd7067deU, 0xbdd412773e0d4283U, 0xbe1191c73c728373U, 0x3ee7b7f0bdd3c6d8U,
  0xbd3bc5a63dc2b4f7U, 0x3b95d7483e94bbf2U, 0x3bdfc3783d8bae77U, 0x3e93b39bbeaff3c2U,
  0xbdfdce843e4c2c17U, 0xbe0ebe303ea5983dU, 0x3d8ec3fa3d8a50b8U, 0x3f035314bee8d9b8U,
  0xbde5d1783e9dd3efU, 0x3d6989793de7cefcU, 0x3dfbaa193d6223e2U, 0x3ddcc6563c1a0c26U,
  0xbd9da6713e46e1acU, 0xbdee3a723e008be9U, 0x3e2c7c733cc46d50U, 0x3d84952b3cd79df9U,
  0x3d279a923eac1094U, 0xbe233146bcfeba9aU, 0xbd528f6cbc95d0dcU, 0x3e3c6780bdd179a5U,
  0x3c1380e83e8439ceU, 0xbe1884213def3853U, 0xbc1a4c693dbbd8a1U, 0x3e57c944bd3f0893U,
  0x3d9887333ebe0adcU, 0x3d9e0ee43dd9a300U, 0x3c97ba383d45c802U, 0x3e666b70bce115b0U,
  0xbd9f2ced3eafcaf3U, 0x3c011c79bda589e3U, 0x3bdbaba2bcd6c2d4U, 0x3d8700a6be3ad8b2U,
  0xbdce7e6d3dbff170U, 0xbddbc2523c388ac3U, 0x3e15d7713da649b5U, 0x3d972755bd118b4cU,
  0xbd8de89a3dd9aa45U, 0xbe0743833e02f7e3U, 0xbd1a4069bd0f5fe3U, 0x3d255084be482a02U,
  0xbe135a1f3dd483caU, 0xbde49db73da6adc1U, 0x3d90161f3e08da78U, 0x3d88de2ebdcc891dU,
  0xbe4bfb393e91d1b4U, 0x3da6646e3e133813U, 0xbba3c1a33d43b551U, 0x3e5d1168be111dffU,
  0xbdd42c4c3e18b8b0U, 0x3d9a81e6bcf26af5U, 0xbda89e04bd277c32U, 0xbd141803bcec2813U,
  0xbe9a60aa3e5dcaeaU, 0xbc0e67f63dc88b0bU, 0x3d3d4b1fbda03d6cU, 0xbdf75a313d6e836eU,
  0xbd7e76ae3e7bdc78U, 0x3d7071b43da5e977U, 0xbd96172b3ce3acaaU, 0xbc80e8d0be20ac54U,
  0xbd83c5e93ec711aaU, 0x3d59a23fbd902a53U, 0x3e1619773e1b870aU, 0x3e5b9ce2be1ca773U,
  0xbdc7818d3e9ef417U, 0xbd9b0d3e3d1f28efU, 0xbdba5ca0bd4aea30U, 0x3d8d96fcbe3867eaU,
  0xbd90c2473e9ec117U, 0xbe0b71ccbcae03f0U, 0x3e575eee3d6ad943U, 0x3da66bc9bd849c3eU,
  0xbdcce2983e8d3c90U, 0xbd114c173e252698U, 0x3cd8c4ec3e15a31fU, 0x3e6ff64fbd61825eU,
  0x3dfe36ba3e42ae8dU, 0xb9a8fedb3cbc1dd6U, 0xbd93d1bebd59c1deU, 0x3d145ec83cfcda34U,
  0xbcf056573e95a037U, 0x3df7bfe33dcc98efU, 0x3d8f2ea9bc88b3a9U, 0x3cb6a899bd43121dU,
  0x3cb9268a3e678f96U, 0xbdbf5e1cbce9cfa2U, 0x3dfa97613dc14593U, 0x3e86d17c3d159ce6U,
  0x3c8553863e93a4e2U, 0x3d6345623da6922fU, 0xbd685d0abd8aa240U, 0x3e24f0493d33d015U,
  0x3cb23ce53e5a5389U, 0xbd5dc24f3e91b2a0U, 0x3dfc76c5bd28302aU, 0x3d173f0d3c70824eU,
  0x3e0930353e22a8e1U, 0xbde161efbba10e73U, 0xbe2038b8bde21fefU, 0x3d9d91bcbd5191e7U,
  0x3c5ddb3a3e570ba7U, 0x3c1ec087bd9657f6U, 0xbe7ddfc53e09608dU, 0x3e3097173babe089U,
  0xbcd1191c3df9c4deU, 0x3da453883e02ad94U, 0xbe11973c3d4bebc7U, 0xbd95cdd83e1463aaU,
  0x3cfd8a053e44a0d9U, 0xbdff25423c87d70cU, 0xbe62baa33ca52702U, 0xbcf5e5ce3d081274U,
  0x3a2873583d9e50b4U, 0x3e2612a63e0252f9U, 0xbe117e41bda60f43U, 0xbd7756b43e358d6dU,
  0xbde669753e4e4d06U, 0x3ddd84b8bd1459daU, 0xbe30ae523b1a0043U, 0xbc4a43e53d9ee43fU,
  0x3dfc92e33e369e0bU, 0xbdb21d1d3e34899eU, 0xbe5cba723b50de7eU, 0x3c1de43f3dab6771U,
  0xbce4040f3e5f865bU, 0xbe029894bd1d3563U, 0xbe41742b3d6a78ecU, 0x3d973a88bd8f9176U,
  0xbcdc03543e407cf8U, 0xbd07cea1bcebb009U, 0xba7fd1c33ad8957cU, 0x3e6091a83def52d9U,
  0x3e37f7123c7047a2U, 0x3d6e6ac63d9369c3U, 0xbe4be61fbd88147cU, 0x39b6744b3e307b9bU,
  0x3c6ab4babbe8db61U, 0xbd99fe363dd9df73U, 0xbe877ce73def2a30U, 0xbd7bcb9c3dd81153U,
  0x3dfa9fce3e2aeb0eU, 0xbdc7bff33d9d15d8U, 0xbe3be6193ddb0a0bU, 0x3d843d43bcf624fdU,
  0xbd0f80d93d7c323eU, 0xbd79c36fbc27e7b5U, 0xbdcd8722bd922c2eU, 0xbcdab168bc42c49dU,
  0x3c82bf143e43543cU, 0x3c6bfbbd3e130054U, 0xbd32a6b3bd8bd174U, 0xbda08d893e227d92U,
  0xbdd4c9e33e16a2b8U, 0x3dbdfb3e3dc8ae06U, 0xbe5fd1afbdbe1f71U, 0x3dde315fbc0a8f9fU,
  0x3da995243d8c6ed2U, 0xbdf4eee5bd8eb6edU, 0xbe23180bbc00025cU, 0x3df026e93d354ea0U,
  0xbd397d893dfc52f8U, 0xbd4b51653e0302fcU, 0xbdcccf89bddb2b65U, 0x3d22931bbceb37beU,
  0xbde2c6093e8ed972U, 0x3dce08f8bde5c158U, 0xbe0ba9d5bbc68d9bU, 0x3da658fd3e2b35e9U,
  0x3d92ae523e45014bU, 0xbcacf9ad3d431947U, 0xbda742123da89acaU, 0xbd233f923c8ba8c8U,
  0x3dc3c92c3e2eb749U, 0x3da1fafabc7af942U, 0xbdf9bf7abd424794U, 0x3e0e2fb03e063c35U,
  0x3e4db2313e8232f7U, 0x3e0ff6583d977204U, 0xbb3e91adbdd90a85U, 0x3e1e12803d278938U,
  0xbcd973993e4092c3U, 0x3e387a6bbd72d882U, 0xbe0d967abd0eba13U, 0xbcb01ad53d7c0db2U,
  0x3eb3cec13b02332fU, 0x3e64475dbdbc4d20U, 0xbe0208d73e140399U, 0x3d1c4f1d3f2f300eU,
  0x3ea185623d9c2135U, 0x3e264398bc389e94U, 0xbea5a03abdc30f0fU, 0x3e1c49fb3ed0e9bfU,
  0x3eb83f733dc2068aU, 0x3d49e50f3dc08acdU, 0xbe1763bd3e349a66U, 0x3de905a03eb1f941U,
  0x3eca1fa53d20925bU, 0x3e3b542e3da6f297U, 0xbe15bc063df358eeU, 0xbbe39d5b3ee95410U,
  0x3e5632223dae409eU, 0x3e95c29b3d3f5c2eU, 0xbe9fdb103e2a0388U, 0x3db258883e7a2046U,
  0x3ee9ff1fbb9a3bebU, 0x3d52bb54bd829c0dU, 0xbecde5123be018bfU, 0x3d67f2fd3e9742b0U,
  0x3ef72ab83bc7cdd2U, 0x3df28b25bd886c89U, 0xbdd94b403e1368a4U, 0x3e55d04b3f216603U,
  0x3ec555143deee0cbU, 0x3e3584303e24965aU, 0xbe9909fbbde27c4aU, 0xbcaa68953f138e6eU,
  0x3ef13bc43e0f956fU, 0x3e8c280abd0d28ffU, 0xbe512a783cd135baU, 0x3c31dc133f14d986U,
  0x3ecfbdda3dd19187U, 0x3dd0a81e3e3e25eaU, 0xbe92d8b63e2408f7U, 0xbca79a623f190f9cU,
  0x3ea35da4bcf46711U, 0x3ca157113bb34b02U, 0xbe85424b3dc0447fU, 0x3dd545f33ee63ce4U,
  0x3e476a423e1f31c7U, 0x3de1cd6abc16481cU, 0xbe9e4f0abd2cd94dU, 0x3cc097943f2a01a5U,
  0x3ebf7e34bbcc78e4U, 0x3d96ba37bd162e73U, 0xbe4a406b3db0b082U, 0xbde25e7d3ec03da2U,
  0x3eb256f8bd9d161dU, 0x3dca867a3d93e1bbU, 0xbea96f37bdc2cb08U, 0x3db782103ee04f41U,
  0x3ece9a043dd7950bU, 0x3db1efde3d0a4f7bU, 0xbe13c7433db98a27U, 0x3dc532c73ea4455bU,
  0x3e7141d83dd1c9e1U, 0x3d29ffd33dc5dc24U, 0x3d203a133dd6bdabU, 0xbd0766f83ee6b8e8U,
  0x3ed06b863d40b88fU, 0xbb5f0b5c3e22bb0bU, 0xbe5853803dbb31b6U, 0x3e451da13ea34ce3U,
  0x3e01e397bd2e9736U, 0x3e4aa43e3d04893cU, 0xbde553903cd118cdU, 0x3e6457403e9bfb7bU,
  0x3edd8050bd38461dU, 0x3e32a99d3e2620d0U, 0xbe89272bbc37fb62U, 0x3e13fc5c3f1cff98U,
  0x3ebe096f3d03a086U, 0x3e62f07a3d962a21U, 0xbeb917eabdc9a873U, 0x3dd76e1b3eca455eU,
  0x3ec5fe683deb62f3U, 0x3e31af143e0abfe1U, 0xbe6bb622bdb54c56U, 0x3c1dbda23f1cab08U,
  0x3f05fc57bd2f81ebU, 0x3eea607bbdd32d4eU, 0xbe5336f73d7e677eU, 0x3d5fed3f3ec65d72U,
  0x3eec7633bbe26da8U, 0x3e7da4933e49f2bfU, 0xbeb6eaf13e0a690aU, 0xbdbad8323f292170U,
  0x3ee13c9fbd616803U, 0x3dfbf0833ddf3dfcU, 0xbd54494fbd3b911eU, 0x3d8112213f05947bU,
  0x3ebffc7d3df3cab8U, 0x3db19725bce834b6U, 0xbd5e222abdd12f82U, 0xba9059ec3ef2f28bU,
  0x3e9467b7bcc8e1e1U, 0x3e38369a3d90c37bU, 0xbcb612623c8d7915U, 0xbd70629c3e45ee17U,
  0x3ec9efbb3df9ecf2U, 0x3d2013b0bd533e01U, 0xbdf3374fbd9f30eaU, 0x3cdafb943e258c84U,
  0x3e73557f3db166a0U, 0xbd4b91e13cc20657U, 0xbe79b0f0bd9165aeU, 0x3d5dddc03ef685ceU,
  0x3e9f5bc93d8b730cU, 0xbdc646a3bd078287U, 0xbeb05f61bd93127cU, 0xbda052cc3f07a2deU,
  0x3eea5fdb3d35f855U, 0x3d9c8ce2bd0120ceU, 0xbd82d9503d5b2ef3U, 0x3e40467c3ee9a88eU,
  0x3e757f4c3d599ffeU, 0x3e9a1a9ebd8924e3U, 0xbd5324bf3c5b66c9U, 0xbda998423ed1237bU,
  0x3ecd20213ddfb7b8U, 0x3dd57d5a3e2edab3U, 0xbdd166c13d4d613fU, 0xbd32a48d3ee097c5U,
  0x3ec007993c0980beU, 0x3dfb330c3ddfb96aU, 0xbe3371d93c2b3315U, 0xb8ed97803f2b6a2fU,
  0x3e59a38b3ddb644cU, 0xbd8042313e01b1c3U, 0xbeb8a8823e06be1eU, 0x3e26e1013eb688c7U,
  0x3e314259bca2d179U, 0x3d433a95bc0d7ed0U, 0xbe012506bcaf2b5cU, 0x3e2464aa3ed44d1bU,
  0x3df93c233b64f118U, 0x3b6f1ffd3d869bc6U, 0xbe962b6f3e498e4bU, 0x3dd6b8a93f15755cU,
  0x3e156e693ca23ecfU, 0x3d0e7dc33e3201c3U, 0xbe4227173e06d42cU, 0x3c125ffe3eb4be6eU,
  0x3e5a36f03c2e7a01U, 0x3da914993d36cff8U, 0x3ca32d573df9266bU, 0x3e2b0e013f001c6cU,
  0x3e9257e73e07cb52U, 0x3d9321ba3d0babbdU, 0xbe16600ebc47bbedU, 0x3e209eb53e8db034U,
  0x3e66ecbb3dad84eaU, 0x3dcfb3113d7c6f20U, 0xbe96c0b43d9d8ad6U, 0x3d6f73953ee79f0aU,
  0x3ec1b4d73c9183f6U, 0x3df7b59cbd494fe0U, 0xbda933b23dffb43eU, 0xbcce1e563ebf4af2U,
  0x3ea7cfdd3dfbceb8U, 0x3e80cfcd3e0d34adU, 0xbe09fef3bd4298bbU, 0x3e004b953ec63268U,
  0x3e9affe2bd200f70U, 0x3e9bb93bbdafe5abU, 0xbecdabbcbb0145f7U, 0x3dc394b23f0c456dU,
  0x3f0cc3e9bd62c7efU, 0x3e64d4363dc79325U, 0xbe77982dbdd97e88U, 0x3cbe22c23ed1ad47U,
  0x3d5adc0d3cf0be91U, 0x3e0b754cbf1c4a91U, 0x3e47b4b9bf2f6185U, 0xbf3c79663ee70d91U,
  0x3e04e966bc84a1b0U, 0xbd17cb50bf0c9fc4U, 0x3dd70616bed376b0U, 0xbf40fadf3f241864U,
  0xbce40d7e3e43378eU, 0x3e7d8adabf4423bfU, 0xbdc9d5c3bf032b7eU, 0xbf054b9b3f07e573U,
  0xbe9022df3e440a91U, 0x3bee5a59bf3afbb6U, 0x3de4c2d0bf12a1eeU, 0xbf0b3abb3e4182beU,
  0xbe9dff293e251c2aU, 0xbd53ec85bf51ebe6U, 0x3e085d90bf0287c6U, 0xbf09bc043e0a28b2U,
  0xbea18cb23d512c3fU, 0x3d42f5efbf3f511dU, 0x3e2e836dbefbe419U, 0xbeee8fcf3d5bf392U,
  0xbdd093f73d2c7952U, 0x3e25a6c6bf0b3541U, 0x3b079d8abeeb271dU, 0xbf234e0d3d2760cdU,
  0xbef1c3143dfb248fU, 0x3da54e0ebf0c6d46U, 0x3e88dd46bee61835U, 0xbf012f4c3e3a540eU,
  0xbe66247d3e78de20U, 0x3e6fcf67bf2454c7U, 0x3e7aa90ebea2e4c8U, 0xbf0417e13e182267U,
  0xbe4eb84d3e3feddcU, 0x3d6032c2bf02a044U, 0x3c89d3e3bf2052dcU, 0xbf12ffde3eb5028fU,
  0x3c5ff9963de69d05U, 0xbcbb3e94beea13c5U, 0x3dd84b39bf0ba116U, 0xbf03d26c3ebcd745U,
  0xbe4f0cfe3e296e2aU, 0x3da0ab85bf53a040U, 0x3d0f493fbf09f8f1U, 0xbec4f4b73e958001U,
  0xbd517ab03d557ed4U, 0xbd13c22cbf124429U, 0x3d368f93bf168215U, 0xbf1b35713ee9556aU,
  0xbe109b923e40cd70U, 0x3dee8957bf4aa293U, 0x3e2fdbdfbf4fa637U, 0xbf25e4053ebcdee7U,
  0xbacff2b53deaf265U, 0x3e99d75bbf13d25cU, 0x3dce41c4bf3b968dU, 0xbec948e43e6c6f1bU,
  0xbe8587583d538950U, 0x3e776ccebf35a41eU, 0x3df2c954bf1a6de7U, 0xbef313843ed9f97bU,
  0xbe6e75be3e0137b6U, 0x3e4f09a8bf4eb8c7U, 0x3de51ca5bf242be5U, 0xbedd82e63de16c3fU,
  0xbee44fed3dc4ab2aU, 0x3c8f2fb2bf0c4d59U, 0x3e6fdee2bf34f628U, 0xbe95fa7a3d3ff89fU,
  0xbed597aa3d9a6992U, 0x3e08352ebf20f1f1U, 0x3c695530befa9cf1U, 0xbef02d953dd3080eU,
  0xbe84192b3bdbea89U, 0x3c5ee4e2bf3a436eU, 0x3e449775beda42c9U, 0xbf0d41ffbbfbfaabU,
  0xbe1a76283e0dc540U, 0x3e505148befed946U, 0x3e48ed94bf09b34eU, 0xbf0be1023e94058bU,
  0xbc64f3863d63480fU, 0x3e9353fdbf3345c8U, 0x3dccccfabf1cbdcbU, 0xbf62e9903e6ff758U,
  0xb987bcbe3dfa69e8U, 0xbe0cec03bbf0a9c9U, 0xbe88c923bda55a10U, 0x3e93c6133e0de394U,
  0xbb7ca7cb3dd3064fU, 0xbc9a6e893e571302U, 0xbe6c3bfc3bff6866U, 0x3de77c6abd7c6a65U,
  0x3d062bf03e02ab70U, 0x3c8acb0bbd7eaaddU, 0x3cc5750c3dffa307U, 0x3ea339fbbc379ba3U,
  0x3beefdb93de0dc6dU, 0xbbc4949e3dda32a8U, 0xbe3377813e2ccf29U, 0x3e308616be064c87U,
  0x3e3341273e126943U, 0x3e1471253d912803U, 0xbe4db8cc3d840031U, 0x3d4bd4173e480adfU,
  0x3e49e53abd6320cbU, 0x3dcc8d0b3e06192aU, 0xbdb8b0b6be12871cU, 0x3e66cfacbdee2682U,
  0x3d19b2013e5eeea4U, 0xbdc90f863e5f2284U, 0xbcd2d3aa3c0b2a86U, 0x3e6372023e40b766U,
  0x3e76209b3da0affbU, 0x3de5550a3d13de21U, 0x3d1bac883e22198eU, 0x3e8740b73e21ac93U,
  0x3d9f26563e3ec057U, 0x3dfb30e83e483b68U, 0xbddd99cbbde51b70U, 0x3db8f0743e320fc7U,
  0x3e6c82a83d8f817dU, 0xbd0d20c03d5fd716U, 0xbe08edd8bda01022U, 0x3e339e113e043469U,
  0xbd41511c3e16613aU, 0xbe206bbf3e580f3bU, 0xbe118ffe3dc8a728U, 0x3e99bf9b3e1e08d2U,
  0x3e1ec7c33e462b3cU, 0x3da1cc05bca25ee3U, 0xbe48e74dbe0688a2U, 0x3e32a01a3d995608U,
  0x3e8477f5bcda8f85U, 0xbe0159e53e479abfU, 0xbe4eda4b3dbbf77fU, 0x3e7c31273e0fab35U,
  0x3e0dddd63e1f95a1U, 0xbe41b3543e7a1b8cU, 0xbe8ab7cbbcda4514U, 0x3e6801ad3e2f5bb0U,
  0x3e400605bd079a7fU, 0xbdcf6a393d625047U, 0xbc9850acbd28e65eU, 0x3dee111a3d2d1228U,
  0xbd2d85dc3d4aeff4U, 0xbb30dfab3e131f57U, 0xbe0409583cd6c4fdU, 0x3e81fd7fbd8bcfeaU,
  0x3d4734fabd1741d1U, 0xbd8d95763da477c3U, 0xbc48dd4e3e1dee1eU, 0x3cdbd4e83e4495bfU,
  0x3d8b03e4bd1bfa89U, 0xbe19062cbd67bbd1U, 0xba4aa5d73dde9ca3U, 0x3e6cc5363e104201U,
  0x3dcf08b83e18c539U, 0x3db344483e8d6bdaU, 0xbe59e4413e84eedfU, 0x3e7b1b1fbcc95461U,
  0xbc48eb9e3dccf36cU, 0x3d050b5a3e636947U, 0xbe3d388dbd4f54feU, 0x3e8dcf963e6057dcU,
  0x3e827f43bc4fe9c8U, 0xbcd3353a3ccf1174U, 0xbd94eb1f3e0cd2a8U, 0x3e4f07a23e544df9U,
  0x3e1217e03d2cb6c8U, 0x3d8c55d93c5cebb3U, 0xbe22ed4f3afc8a9eU, 0x3e9fd88abcdc989fU,
  0xbf1c5bf73e35d138U, 0xbde695be3dd2c718U, 0x3e88d8013dd59167U, 0xbe0db787bf1c15ddU,
  0xbf005b353e3cd6adU, 0xbd907f3b3de6eff4U, 0x3eb61d423c83a920U, 0x3dbbc16fbeb863dcU,
  0xbece52c13dbffb3cU, 0xbe1fcd28bd1711adU, 0x3e018d393c1d4594U, 0xbe02944dbee27778U,
  0xbe7dddf3bac4bc5dU, 0x3e353494bcf6a5b1U, 0x3ea581413c8f3b39U, 0xbd8a287fbe338b2fU,
  0xbe95b4e43e62e66aU, 0x3ccb55c9bb3fc638U, 0x3e1a71383d833f34U, 0xbe2450b0be4a9168U,
  0xbe9256663e7dfa83U, 0x3cf70f973d8b4f30U, 0x3e36ef653bb65d40U, 0xbd8036f6becda1ebU,
  0xbebff4cd3d41e48bU, 0xbdb895423d9387afU, 0x3e3ae027be187088U, 0xbd584ab0beccd3a2U,
  0xbed28b523e461ee6U, 0xbe406cf5bd89371dU, 0x3e3e34c93d4ce468U, 0xbe1f573ebed585e4U,
  0xbf161fca3d7098b8U, 0xbdc6fc1fbd2932bfU, 0x3e392dc83e109d36U, 0x3d30ad6abf1ecf7bU,
  0xbf1765ef3d7b8b3bU, 0xbdf0d1023dfec022U, 0x3eca248cbe0ce21cU, 0xbe3b4c01bf3cd0abU,
  0xbf2b8be8bd095332U, 0x3caff2033e03a0efU, 0x3e50e1dabdd2bba2U, 0xbda15368bf1fe6faU,
  0xbe8ac9153dbf0055U, 0xbd80ee31bd2f2befU, 0x3ee215a53d3dc9b9U, 0xbde14232bec4dc1dU,
  0xbe891b733e01685bU, 0x3d970b26bdaaf4e7U, 0x3e86b138bd8d928eU, 0x3a905189bee56630U,
  0xbe5448073c1c8321U, 0x3e2a432b3df451d1U, 0x3e4a9596bd1ec05dU, 0xbde13154bedcc092U,
  0xbe83a00a3e0aa592U, 0x3df44c1b3d533fdaU, 0x3e8cf1eebd711ef7U, 0x3d6c74d5beb1d6c0U,
  0xbe86cb693e44136aU, 0xbde325bcbbc6ad45U, 0x3e534d31babdbc23U, 0xbd922767beda0a69U,
  0xbe8defae3c63eb27U, 0x3d8551ca3d3fcfabU, 0x3e7b8dc5bcd516faU, 0xbd7db673bea258ecU,
  0xbe22f89c3e097d68U, 0xbb543c37bdaf5985U, 0x3eb863923dd3abcaU, 0xbdb78b72beb94a7aU,
  0xbf23a9ed3e34c3b0U, 0x3d73d7293e199af7U, 0x3e5e12a7be11639eU, 0x3de58a6abf0ef484U,
  0xbed6c3203d9a9387U, 0xbda68c813dd4cbfbU, 0x3e99cea9bdae9f66U, 0xbd3a861bbec7ed08U,
  0xbf256dd43d05bb64U, 0xbe8d552bbdc11706U, 0x3e9be4a8bd88e01dU, 0xbdbeed39bebecc15U,
  0xbf5b52873df704e5U, 0xbe8e3e4dbd45df5aU, 0x3ec2d7f33d9c13f4U, 0xbdfdbd80bf197ab4U,
  0x3dd72eb3bcd1587aU, 0x3ea0db7dbf0a17faU, 0x3e2790a7bf106555U, 0xbf45a4603ece42b9U,
  0xbb12ea1b3e4cdaccU, 0x3e838062bf2f2210U, 0x3e58c05fbf0e6f26U, 0xbf30487d3ec28fa6U,
  0xbe0959663e7296feU, 0x3e89d88dbf36cf31U, 0x3d94169dbf01270eU, 0xbf27e8bd3edebf3eU,
  0xbee3ce7c3db8c1aeU, 0x3de13f9bbf016033U, 0x3d8b78a1bf30ef60U, 0xbf0726873ea7638fU,
  0xbe71fa3d3dfb19efU, 0x3dfeb661bf15af2bU, 0x3ded7291bf105dc9U, 0xbeb0424c3baf5310U,
  0xbeef2abc3b1230cfU, 0x3e118dcdbf2a1e18U, 0x3e140abcbf2edc44U, 0xbf0984bc3dc8ecbeU,
  0xbe21c6a33e568569U, 0x3e2f10cabf1f3018U, 0x3c80ae15bec86fa7U, 0xbf1a25633e4827d5U,
  0xbeebf5e93e773a85U, 0x3e3630eabece23ebU, 0x3e02b965beaea912U, 0xbf05fc583dd90f3aU,
  0xbeb677a83d77165fU, 0x3dc4116bbecab196U, 0x3e88ccdcbf3c532aU, 0xbeb235573e496627U,
  0xbe68b0c63e5591acU, 0x3d46af5abeca990eU, 0x3cccf542bf0bdca8U, 0xbf18a1543e11cbceU,
  0xbe764a053e007ffbU, 0x3e949729bf27f229U, 0xbb9a54afbf40f79fU, 0xbf04fcf73e389962U,
  0xbe9714a53e4954c3U, 0xbbb43375bf0da8bcU, 0x3e18e305bf2ee64eU, 0xbef63c8c3ecd3c26U,
  0xbe34b7923d7b9961U, 0x3c17ec4ebf00e0faU, 0x3d6cf513bf1ef0ecU, 0xbf10b8133ea2f51fU,
  0xbe1296093cccf621U, 0x3e1eec6cbf118645U, 0x3e3d4d2ebf574b99U, 0xbec5d14a3e45c441U,
  0xbd72130d3df27f66U, 0x3db89852bf2ada9dU, 0x3e20cac5bf493fd2U, 0xbed424883ebe663dU,
  0xbe36d4d43e35da19U, 0x3dc1fc54bf22defbU, 0x3db39a8bbf3c4991U, 0xbe9d7c8b3e4e047dU,
  0xbe962f6b3d559c42U, 0x3e7eeca1bf16d981U, 0x3e20d11dbf311186U, 0xbea70e703bf8112fU,
  0xbf1152ee3e0a74f5U, 0x3e621eaebf2d0ce5U, 0x3e8c48ecbf460ee7U, 0xbe7cabd5bc9cbe9eU,
  0xbec990a13ddfb24cU, 0x3ea1d961bf38e814U, 0x3cd14988bf3eafafU, 0xbf0dafba3d6a9dd1U,
  0xbefe219a3e119edfU, 0x3e6ce48fbf10eea5U, 0x3d1201e6bf409ec8U, 0xbf0558c03da62424U,
  0xbe55d73e3d2ad1b0U, 0x3dfdd0c8bf1932f2U, 0x3d9b00dabf1f257dU, 0xbeaf02853ea7db67U,
  0xbe723569bc9f08fdU, 0x3d102b37bf16827dU, 0x3e428ee8bf2c52fcU, 0xbf3cdfe23d01bd58U,
  0x3ecffa74bdfee1d6U, 0x3e8ce8ba3d29753eU, 0xbe6daa5ebd90971fU, 0x3de708d03efdb2e8U,
  0x3ece58e0bdbabf2bU, 0x3e219c963d8fda3fU, 0xbe183fda3e0f805eU, 0xbd91fe063f1c4687U,
  0x3e4d824d3d891078U, 0x3e66752d3de5b402U, 0xbe17bac83dd2bf9dU, 0x3e035f043e56278bU,
  0x3ea7f414bd2c1089U, 0x3e2344053de5a3a8U, 0xbe39103abe0eae5bU, 0x3d6db30c3eaa200aU,
  0x3eb5e3173c58be39U, 0x3dc14b1f3c1e9deaU, 0xbdcff7bf3cb05943U, 0xbdae0b553eb87e2bU,
  0x3e1fc27d3dd0c3cfU, 0x3dbd764e3c41119dU, 0xbe842d543e194202U, 0x3e046e613eea848eU,
  0x3ed0fa87bca1a91fU, 0xbd986ff5bc54e580U, 0xbe699f1b3dd80e00U, 0x3e36dc5a3f0919eeU,
  0x3f1866633d2a3516U, 0x3dff559b3d609f3aU, 0xbe148d133da7d774U, 0x3cbf41493edd57faU,
  0x3ed861e5bc99a7e8U, 0x3e2b182bbd1c8e7bU, 0xbde5b6973db7e797U, 0x3e43483c3ead8c66U,
  0x3ec6ce2e3e011b54U, 0x3d8cbaf23df85258U, 0xbe67a0b83e234f4cU, 0x3e5b60c03f2d0450U,
  0x3ec38caf3cc3b2ccU, 0xbc42df2a3ddd0845U, 0xbe9b848c3e2f48e9U, 0x3e001bd13f2c519aU,
  0x3ee7453d3decf23aU, 0x3d9746423e055afaU, 0xbec6ebd3bced2d4cU, 0x3e2001ab3eab68e8U,
  0x3e9e912ebd167895U, 0x3da1a0d93d0706ebU, 0xbdbd73433e2d12bbU, 0x3e0f67643ede1060U,
  0x3e7cd26b3e0f8b2bU, 0x3d25842b3e18b967U, 0xbe9f66423d8cf90bU, 0xbda84ca43eeee8d1U,
  0x3eb2008a3e05b6f9U, 0x3d8a784e3e4a56cdU, 0xbe2e5acb3e510952U, 0x3ced59f23ed2846aU,
  0x3e62c9923e1d52ddU, 0xbc17e6f1bcc4fee1U, 0xbe24e2143db6d036U, 0xbd36a9bd3eaf5903U,
  0x3e59c0a13d094ceaU, 0x3e46fd903d973050U, 0xbe3f5c5bbd803739U, 0x3e02fcee3eea8dcdU,
  0x3d8d6995bd59fe3aU, 0x3cbf8c73bdaf8841U, 0xbc1562e2bd69fa9fU, 0xbc6b41653ef6cb47U,
  0x3ea238e4bccd258dU, 0x3e90a51ebd9d6996U, 0xbe865854bddce6d0U, 0x3d20fe493ed2bc52U,
  0x3ec17ad13c9b1503U, 0x3e8b0b263e1d9606U, 0xbe8d1e5d3dda46caU, 0x3cdfa9d23eb613e0U,
  0x3f1014eb3c2e0970U, 0x3e95bcafbda490aaU, 0xbdfc331a3c05bc3eU, 0xbd0fdb783ee8b7e1U,
  0x3f007ed13dbe5f77U, 0x3efc32623b69ed9bU, 0xbe3a7a85bcc84dd5U, 0x3c4fcc8c3f0b6b39U,
  0xbe1ab0b4bcdca9d4U, 0xbe022ba33e522cc5U, 0x3df1ff01bd9a5cccU, 0x3e06e30fbe914842U,
  0xbdbb8a36bded5d8cU, 0xbd4f870e3de226abU, 0xbcf91e673e072919U, 0x3df00390be28cf72U,
  0x3d8fb9fa3d526b1aU, 0x3d63ec423e0e9654U, 0xbd63727e3df00592U, 0x3cc43eecbe069136U,
  0x3df693b63deb1de3U, 0xbdd9bbcb3de7208dU, 0x3e44b9523e4a0486U, 0x3e0b9a683da22a7aU,
  0x3e29c0b7bd593667U, 0x3c5272043e607550U, 0x3e3c39a63d679234U, 0x3dbbafbcbdc707ccU,
  0x3e5f9b1e3d5773b4U, 0xbdc3cf9fbd0765c4U, 0x3df5e7abb9fda232U, 0x3e151a7dbd198595U,
  0x3e39d3563d1c0632U, 0x3d1524303ae6aea6U, 0xbdb0cc05bdd90347U, 0x3c91c5db3c8af6e3U,
  0x3d37f6f13ddc7823U, 0xbe12ffc23df1551eU, 0xbd215bfbbd9a9951U, 0xbc36eb423db2f028U,
  0xbda7a70abdcc9c00U, 0xbc53d10a3dec0afbU, 0x3e1e41953e267113U, 0x3d6424d13bc44b9dU,
  0xbd82e046bc257526U, 0x3d0f5bd7bd7ef572U, 0x3e2172753e0c6b0bU, 0x3e2b235ebe2106b7U,
  0x3b094673bd0a555eU, 0xbdb362213dc18509U, 0x3e320f963c0cf752U, 0x3cabe468be3fc785U,
  0xbd93cac93d8c0969U, 0xbd6f96ff3d81d6d1U, 0x3aceb9463daa4f9aU, 0x3e40b049be23cd2fU,
  0x3cd9f74dbc4f7363U, 0xbc0fc3043e1bd822U, 0x3e8db621bd0206feU, 0x3e8642a5bdfb09cdU,
  0x3e0413e83d576640U, 0xbdbada4e3d23b8e0U, 0x3e1b1e2bbdd7b408U, 0xbcd3ac05bca852c4U,
  0x3d280d803e0554d5U, 0x3db4b07c3e4c72f7U, 0x3cedd5683daf3cfcU, 0x3c95e8f6be6abc37U,
  0xbb930c393e02f8aaU, 0xbd412c023e727e9bU, 0xbdf016933d267b32U, 0x3bd3996c3dbefa82U,
  0x3e4fd146bb45da1dU, 0xbe07870b3e3a64ccU, 0x3d6b28f1bd4c21cdU, 0x3e7fcc64bc92a4d6U,
  0x3e1b4338bcb9563cU, 0x3d00af1a3e9745ffU, 0x3e58ec343e227d68U, 0x3d154f58bd15195fU,
  0x3b4e6ffb3db4b55aU, 0xbdf2099c3e9301b7U, 0x3e3e93b63e0c65a5U, 0x3e792ff0bd43cddcU,
  0x3e36c674bdcdd811U, 0xbe16a4db3de10d32U, 0xbc6349debc9bf5eaU, 0x3e01a8593d8af2c3U,
  0x3dea27f23dfc2552U, 0x3dfc583ebb1d5681U, 0x3dc26ecd3dfec161U, 0x3e8e8037bd0e4565U,
  0xbdca84d6bd639654U, 0xbc55768abd36ee2bU, 0x3dde8cc83c0fc805U, 0x3e4eff253c3182a8U,
  0x3da94d143e1200efU, 0x3e6a672dbee1b9f4U, 0x3db70103be90e1c0U, 0xbee035533f11ea9fU,
  0xbd8ab3e83df0131bU, 0x3d6816edbf14f6a7U, 0xbd00cb1dbe5c0b88U, 0xbea76b823f1ae8caU,
  0x3c93779e3da4b610U, 0x3d0b3ca4bf090604U, 0x3d86b3c8be7302daU, 0xbef2434f3ed309e0U,
  0xbdbeced83deb2308U, 0x3e361735bf1ca46bU, 0x3e3926e8be91dcddU, 0xbeaa19433f00734eU,
  0xbe17b4d23e2fd90dU, 0x3d48136abf037e60U, 0x3db80a1dbe8f0884U, 0xbdda8a773ee7dba1U,
  0xbde895793e439a9bU, 0x3e2c70e0bede08b3U, 0x3e46c794bebcc072U, 0xbecee1473ea18037U,
  0xbe8b0379bd8ff696U, 0x3e12d32ebf1e6e07U, 0x3d864bb4beb44056U, 0xbecb00653e883b4eU,
  0xbe8a4869bcf28089U, 0x3d66533cbf1066b1U, 0x3e68444bbeb148f5U, 0xbe72ce603ed8e0a4U,
  0x3d2eaf7fbcaf7ab0U, 0xbc137a3bbf0bb419U, 0x3e23033dbf1f9445U, 0xbe9666d83eb8d880U,
  0x3dbd4295bc29f5c0U, 0x3d76a90abf04d068U, 0x3dda326cbec1f9a0U, 0xbeda922f3f323c5fU,
  0x3e534bc73c919ee4U, 0x3bf6d1b7befd6e92U, 0x3e377e3ebebb6c5eU, 0xbe923cbf3f103ea0U,
  0xbda60c7ebcca8c22U, 0x3c6b64babf19d18aU, 0x3e629169bee72defU, 0xbee055da3f336b7cU,
  0xbdc267633d3577fdU, 0x3e5ba1c8bf046b7eU, 0xbd79ede8be9495ccU, 0xbe5c89c93f27e071U,
  0xbd8e9bc5bc4271f6U, 0x3e44c3bebf1b022fU, 0xba7a5369be8abce9U, 0xbe0d90aa3ec5e752U,
  0x3d0a40d9b9186f04U, 0x3e38c74cbf108f22U, 0x3e1aefedbe8bc6e4U, 0xbec957543edea632U,
  0xbdd3f0da3dbada56U, 0x3da75c56bf3ba79fU, 0x3e28177ebed1ac7dU, 0xbeb8f0903f097835U,
  0xbcaf76643e44485cU, 0x3e1cd829befded12U, 0x3c0e49fbbee38bb5U, 0xbe7a078d3ec00725U,
  0xbe801b5d3c9783d7U, 0x3d9a465fbef5ba44U, 0xbd24de29bf043436U, 0xbec932323e26c72aU,
  0xbe9f3e8a3e162839U, 0x3e60dd8bbf273fe9U, 0x3df585e3bec0f936U, 0xbed7a2453ebeac18U,
  0xbdc6b87c3d8b0a95U, 0xbd59931cbf2b9a3eU, 0x3df4d049be9c28c8U, 0xbe3e9ed63d9424f9U,
  0xbe993f0f3e3682f3U, 0x3e11c4fbbf263467U, 0x3dd4dc7fbf1c5ba3U, 0xbe961b8d3e915799U,
  0xbd9dc9473e221e3fU, 0x3d35ad21bf09b27aU, 0x3dbc51efbf164fe1U, 0xbf0a9a0e3e418996U,
  0xbea949c13da9a3b4U, 0xbe2019ae3e3e78fdU, 0x3e4304ed3e5a2b36U, 0x3e28ee8bbec8f183U,
  0xbe90219a3e591300U, 0xbe0e48033c3083a0U, 0x3e015a9f3db9de91U, 0xbc843c11bea60e49U,
  0xbdbccaae3dab9ccbU, 0xbe572efa3b6819eeU, 0x3e83c5343c967c03U, 0x3d772fccbeca2d58U,
  0xbe002faf3e38febbU, 0x3d850c30ba9e05b0U, 0x3e0b49d53dbf5bcaU, 0x3e1f591dbe44bc1bU,
  0xbc58e9a0bd206a24U, 0x3cf827de3e3ec287U, 0x3e56fee9b86106d0U, 0x3e0c234abd2d4b92U,
  0xbe8942073dd3c205U, 0x3e0e1fd03cb68152U, 0x3e5224863d51a8adU, 0x3e1dee18beb1f366U,
  0xbdcbf24a3d61b5ffU, 0xbcfbb88b3da46eccU, 0x3dc9abd5be047463U, 0x3e6feb19beb319aaU,
  0xbeb5a35a3e5cd521U, 0x3d8b93313d168d67U, 0x3e4bf62c3db92ecdU, 0xbcb84ea1bec5fa0aU,
  0xbe0c2c56bc946c23U, 0xbe5be9f23e1f4955U, 0x3c47a41b3e2c2063U, 0x3ddbac87bf094c7eU,
  0xbe9e0c843d88c092U, 0xbe1f97423dab7982U, 0x3df703db3e163692U, 0xbd018279bf07939aU,
  0xbed4dfd23e80ab2cU, 0xbddec95e3ddc6673U, 0x3e82ffbcbc11aa70U, 0x3cb1c101beafe1a6U,
  0xbd25c14b3dd3b991U, 0x3e07b3523dd1506cU, 0x3dd32cd43de6c05eU, 0xbcbfb44dbf064f48U,
  0xbde64f393e3889c5U, 0x3cbf8efd3e0c0db4U, 0x3e0b3f6c3d1c456dU, 0x3cc11055bf0925a4U,
  0xbeb60e7a3d868670U, 0x3e04d3913e4d2f68U, 0x3e801c583d2a8bf3U, 0x3d918d86be9d8180U,
  0xbe7508babd7a2727U, 0xbc70f0c23e3cf303U, 0x3d90dd133def9f6aU, 0x3e1d89cfbe8c8388U,
  0xbe02f24a3da3ce63U, 0xbe243b16b9410627U, 0x3d4b3308bd928320U, 0x3e867055beba0542U,
  0xbdd3dd233e6362d7U, 0x3d9fffaf3e64d8c3U, 0x3e5703c03d6c848cU, 0x3d5355fabeab0cf3U,
  0xbd02f5ddbd523503U, 0x3d0c2d3cbd3587f5U, 0x3d939df53da5ddd1U, 0x3e1c2817bec812c3U,
  0xbd5ec6403d59ba05U, 0xbd9a04b63e84448aU, 0x3e51e31ebc1d0d37U, 0x3e892eaabec08c9cU,
  0xbe0dc4c53df3effbU, 0xbe03382ebc0ade0cU, 0x3dbc57383d8fab38U, 0x3e7adfd5be220157U,
  0xbe9b42863df9936bU, 0xbc82e05a3d4eca74U, 0x3e29e7e73e1260d1U, 0xbbd30320beb5cbf7U,
  0xbe7443bdbd2fdfceU, 0xbe87935f3d82eb64U, 0x3e3ccd2d3e7c095bU, 0x3e48ced1beab60feU,
  0x3e95c108be9699eaU, 0xbdeebe44bd9f7683U, 0x3e33f1bdbc6246feU, 0xbe77a5a73e3ced78U,
  0x3e4ad18fbe54afc7U, 0x3cdd03cf3c36a825U, 0x3d0afb203daca927U, 0xbb6ba5b83d259170U,
  0x3d960905beb37395U, 0x3bc0b7d23db205fbU, 0x3d8582f53d43593dU, 0xbddb5ef83dba9fedU,
  0x3d9f2205beb7422aU, 0x3e063a1ebdc3e2afU, 0x3d3accd03de54c90U, 0xbe0f16573d0826c6U,
  0x3d47dbb1be6c2ae4U, 0x3dfa82babd2645dbU, 0xbddfa2733d882361U, 0xbd0e70cd3e7e14e3U,
  0x3dbdffe9be15ba40U, 0xbd339654be1c9af6U, 0x3e02d2b8bd04f73aU, 0x3d446c933d96e64aU,
  0x3e491599be42e90fU, 0xbde5941ebe697b2dU, 0x3c61eca8bc377326U, 0x3d7cabb33ddc356cU,
  0x3d592728be3dd6d5U, 0x3e18a9acbd363f0eU, 0x3e01026ebd71f3cdU, 0x3d68c8c73e5e4812U,
  0x3dd9fa8abe899778U, 0xbcb3c22e3dd22fc6U, 0xbd0284f4bbd6896cU, 0x3a0ec1803d494244U,
  0x3e9fb3bfbe83d2b1U, 0x3c9a948c3d79b2b0U, 0x3e5e3ebc3e1d117aU, 0xbda00b1a3e00dd90U,
  0x3de4eacebea26187U, 0xbddd6b483dc356ceU, 0xbd0cc0223e5cfdd1U, 0xbd6bd4053e9b1762U,
  0x3e1ec725be1237b7U, 0x3d2d54eebdc98ac4U, 0x3d93d12cbc8b3045U, 0xbdcb5d6b3d9235bdU,
  0x3de21491beac200aU, 0x3df51178ba077659U, 0xbd9fffa13c97a1d7U, 0xbd6b44b03e74d808U,
  0xbde5e826bd994e07U, 0xbe317ff23d21e71fU, 0xbdf0b2ae3da75cd6U, 0x3dad05c43be3807fU,
  0xbd154888be8039d5U, 0x3e025f07bd7c7b35U, 0x3debc7f8be08b5e7U, 0x3cfd22c43e2f2379U,
  0x3e129abbbe44a4dcU, 0x3e1298ccbe1181c4U, 0xbdf9dbee3db2b374U, 0x3d3ea8763e7122b7U,
  0x3e66ce20be042c69U, 0x3dcd3ae6bd2c4cf0U, 0x3e5f02e23e3e31bbU, 0xbe041d7e3e207deaU,
  0x3e38ca64bda5ec0eU, 0x3d8309763db649c5U, 0xbd8637073d84e6e6U, 0xbba4d78d3e27d0faU,
  0x3e469451be7068deU, 0x3d172e383dd28caaU, 0x3c496a063d25a4b2U, 0x3b361e793e21ce8cU,
  0x3ca1ce30be368971U, 0xbc0691c3bda5fab5U, 0x3dbc3a46bb917c40U, 0x3d0176023e08d8ccU,
  0x3e823f4fbe6bffc9U, 0x3d7cc26cbc97c5e8U, 0xbe14017d3c870c09U, 0xbd4972293d01ebefU,
  0x3e82b558be9debd4U, 0x3e081a3fbd86a54bU, 0x3d15a9d83dbc849aU, 0xbc84162d3ce6385eU,
  0xbe1befed3df514adU, 0xbef9045d3dc52c44U, 0x3e783c9b3d9beca1U, 0xbde619adbe733d2aU,
  0x3da69ebcbb966d84U, 0xbeeeee18bdaa5d67U, 0x3d1b9d893dd16593U, 0xbc9bc0893c6fb7a3U,
  0xbe018010be99835cU, 0xbf212d3ebe011e20U, 0x3e932b8dbd9fed17U, 0x3bd1bba83b20a1e9U,
  0xbe1d81283c88a738U, 0xbeaeca53bdfc3b9cU, 0x3d6802a03dad78f5U, 0x3dc01441bdb29c93U,
  0x3e908cc4bc42cef6U, 0xbf0725c33d0ed58bU, 0x3e5f7b323b03e040U, 0xbd096693be540524U,
  0x3eae90eabe2d71fdU, 0xbe90e12b3d3e6b4eU, 0x3e1cf55f3e32bdf0U, 0x3dddf739bd13116cU,
  0x3d6d319cbd7dfbf6U, 0xbe6d373e3cc5cd5bU, 0x3e92a7b13c1d38e6U, 0x3e32ea793d8bc926U,
  0x3e8297fa3e4cedcaU, 0xbeab85993dc3ac0bU, 0x3e4b46b53db2645cU, 0x3d0f202a3d80aab0U,
  0x3d5a86cfbdfc0b78U, 0xbeadbb52bd4c2db9U, 0x3e02130abd9fc940U, 0x3d5db9393e81c322U,
  0xbdd9d377bd9dcea7U, 0xbeace7553cf5ece5U, 0x3e7435c7bd547061U, 0x3d8385f23ced7285U,
  0x3db53f9bbd6ca36dU, 0xbea8ac5ebe657462U, 0x3ecceb33bdde53ecU, 0x3dfb87da3d9bf672U,
  0x3e14c2503c8f3c80U, 0xbe9dcf19be0b8a85U, 0x3e830c09be5fa6edU, 0x3e382399be151c46U,
  0xbe563d993e831364U, 0xbe9ceaa6be5668c5U, 0x3d26ccc9bda86e3aU, 0x3d93b65fbe4c5b9fU,
  0x3e90531cbe9da071U, 0xbe7104a53def89c2U, 0x3ec28309bd135b71U, 0x3e0edce33d82cd85U,
  0x3c836bc4bd18ec68U, 0xbebad0acbe1d7081U, 0x3e7945063c2f6af5U, 0x3d36c0063e307853U,
  0xbe078972bd5c1a35U, 0xbe86c2193e2ace2aU, 0x3e9accc5bde79485U, 0x3d733ce83e6a7292U,
  0xbdead6463d53bec7U, 0xbe8df9d8be398b6aU, 0x3e074f393e3ac654U, 0x3e12ffeabd79ef94U,
  0xbe5f70ebbd1e2c46U, 0xbea60284bd8d97e5U, 0x3dbc872abdd7a8dfU, 0xbcf431e2bdae4da9U,
  0xbe5f87b4bd9e663cU, 0xbeeaab293caf0cf6U, 0x3dcdf35a3e22d27aU, 0x3c9ab1b0be9c5366U,
  0xbe69c334bd9f2c2aU, 0xbec7a51cbdb41f8fU, 0x3dc00bf83c6fe833U, 0x3da0f58b3d6049e9U,
  0x3d713c1dbd881e28U, 0xbf26a6383d1bb1c2U, 0x3e3b91a53d344662U, 0x3e3446bbbe835a6dU,
  0x3d9217dcbdf78735U, 0xbf0c395bbde28b6aU, 0x3e8ce4503df92578U, 0x3dd55bd9bcb8110bU,
  0xbf28c33ebd368586U, 0xbe1cde553e2c0da4U, 0x3ea809473d7e561bU, 0xbd366db1bf5c5c80U,
  0xbe7ed628bc0f4971U, 0xbcd0f7b73e21f800U, 0x3e16b6e0bd27e52cU, 0xbd4d7ab8bf051d69U,
  0xbec19d753c3eef5bU, 0xbe1fec303dcaad94U, 0x3e9895f1bd7003d4U, 0x3d1546afbf3d0091U,
  0xbeca859ebd2db8f8U, 0xbd5ba0cd3d91a6f7U, 0x3e21aa78bb27f57fU, 0x3dd9ffbcbf1b8579U,
  0xbf2123243e100a21U, 0x3db7a61c3e148f6eU, 0x3d09086ebdde7a53U, 0x3cc01456bf229f49U,
  0xbed73f483e3488fbU, 0x3e1e1f38bd408090U, 0x3df729c8bdaaffe1U, 0x3b865744bf1095c8U,
  0xbef4f60cbd591af5U, 0x3dced9fb3dd9ef17U, 0x3dffda22bd9d1605U, 0x3d07a69ebf0b81a1U,
  0xbefa45e93cb457d5U, 0x3d9827d83e1ff893U, 0x3d7dc912bd426db7U, 0xbd3b5e01bf1347c0U,
  0xbeefe9a13e1943aeU, 0xbe3765aebdb3165cU, 0x3e2497f83df0c1e6U, 0x3d084efabf02ab1bU,
  0xbedfb1c4bd3f42b1U, 0xbe105918bde5f200U, 0x3d96a977be097bd5U, 0xba6fd040bf5f22f8U,
  0xbf306293bd8b2514U, 0x3dbf180f3e3442e7U, 0x3e1b18fc3db6f192U, 0x3cc7979cbf14369bU,
  0xbec1bc173e0a5d77U, 0xbd841cbabd3dd9f9U, 0x3e36fcefbe3c2f1eU, 0xbe08f3e2bf2a9828U,
  0xbf08db173d867c7bU, 0x3d8887a0bd955a5bU, 0x3e8e1e62bd68b7e9U, 0x3e0343b6bf427edcU,
  0xbeae8b633e329d87U, 0xbdc62d2bbcd7fff3U, 0x3e7f1f87bda5b8e0U, 0x3cbee243bf054e17U,
  0xbee42be9bdd35360U, 0xba7855ccbd65e233U, 0x3e3f80633d9f55deU, 0x3cb82c35bf3c4c0bU,
  0xbeb3586f3e245759U, 0x3e28ee613d57fe96U, 0x3e32f2443c1c43f0U, 0xbd3133b4bedaa549U,
  0xbe961a563cd1029bU, 0x3c91623f3dfe5672U, 0x3e90a27d3d56d5f7U, 0x3cd8f10cbf3a21d7U,
  0xbe92bb213bb2fbadU, 0xbcf83b0ebc2c69c6U, 0x3e1d48f1bdcd7270U, 0xbddab2aabef3d55cU,
  0xbebe4452bdc3e458U, 0x3d0ab2953de5cc0bU, 0x3e1ef65fbe28123dU, 0xbd9b98ecbf1b5705U,
  0xbe9a8ce63deb2ba9U, 0x3d5231873d1d8d12U, 0x3e27ff183e00c535U, 0x3da88a46bebba615U,
  0xbf05d43fbcb145e9U, 0x3d815e03bbe1fab4U, 0x3e67cbdabc9bf137U, 0x3dc368fcbf2ce3a0U,
  0xbf0fcef9bcb61d8aU, 0xbe6845083de7c203U, 0x3d6825763dfba2c5U, 0x3d57e439bf084ba8U,
  0xbef5d2b23ccd60d8U, 0x3d8a81dd3d9c59edU, 0x3e13fa893cb8cf0dU, 0xbdd920e5bf0c1a23U,
  0xbec43629bd641cefU, 0xbd8a4d643bc3043bU, 0x3ea43c7a3b19cd83U, 0x3d6d4448bf26366bU,
